<unk>	0
<s>	0
</s>	0
▁i	-2.99998
.	-3.07346
▁and	-3.63686
,	-3.67742
▁the	-3.73791
▁it	-3.93169
▁to	-3.95841
▁my	-4.01552
▁a	-4.03251
&####;	-4.04446
▁for	-4.43463
▁have	-4.53431
▁was	-4.54417
▁of	-4.61856
▁"	-4.65461
▁on	-4.73868
▁but	-4.85054
▁this	-4.85329
t	-4.86509
▁in	-4.90916
▁had	-4.94343
▁me	-4.95847
s	-4.96819
▁that	-5.00575
▁is	-5.02291
i	-5.06025
▁##	-5.08844
."	-5.09456
▁with	-5.13066
▁not	-5.22064
▁so	-5.25265
▁been	-5.28271
▁	-5.43595
m	-5.43755
!	-5.57989
▁no	-5.58824
▁at	-5.60124
▁about	-5.60424
▁am	-5.63152
ve	-5.63799
▁after	-5.65163
▁now	-5.65512
▁as	-5.74527
▁side	-5.77876
▁all	-5.78791
▁day	-5.79813
▁months	-5.80009
▁taking	-5.82204
▁has	-5.84004
▁first	-5.85057
▁get	-5.92199
▁you	-5.93372
▁only	-5.94826
▁like	-5.94858
▁pill	-5.95102
▁started	-5.95354
▁period	-5.95453
▁out	-5.95616
▁effects	-5.96536
;	-5.9657
"	-5.97331
▁just	-5.98038
▁be	-5.98886
▁years	-5.99019
▁up	-6.01488
▁very	-6.02458
▁weight	-6.03502
▁(	-6.03848
▁take	-6.03909
▁time	-6.04227
▁or	-6.05346
▁because	-6.06012
▁days	-6.06874
▁2	-6.08368
▁feel	-6.09506
▁when	-6.12701
▁pain	-6.13547
▁3	-6.14445
▁from	-6.14947
▁would	-6.16491
▁can	-6.17276
▁if	-6.1967
▁month	-6.21823
▁week	-6.22456
▁more	-6.26251
▁got	-6.26263
▁weeks	-6.27601
▁control	-6.28507
▁also	-6.31686
▁back	-6.32451
▁are	-6.33896
mg	-6.3478
▁before	-6.36541
▁one	-6.36916
▁acne	-6.37573
▁###	-6.38065
▁do	-6.39353
▁did	-6.40363
▁then	-6.41044
▁don	-6.41543
▁birth	-6.41677
)	-6.42118
▁anxiety	-6.42766
▁will	-6.42984
▁since	-6.4316
▁really	-6.44908
▁off	-6.45825
▁doctor	-6.46708
▁any	-6.47195
▁bad	-6.48311
▁which	-6.48451
▁never	-6.49512
▁took	-6.51646
-	-6.52124
▁medication	-6.52539
▁an	-6.53329
▁some	-6.54697
▁much	-6.56085
▁than	-6.57574
▁over	-6.59142
▁still	-6.59416
▁&	-6.60811
▁life	-6.60882
▁other	-6.66278
▁two	-6.66396
▁didn	-6.66411
▁went	-6.66521
▁year	-6.67145
▁depression	-6.67732
▁felt	-6.68441
▁good	-6.70401
quot	-6.70404
▁every	-6.70516
▁better	-6.70517
▁sleep	-6.71505
▁work	-6.72063
▁few	-6.73092
▁great	-6.73589
▁even	-6.73791
▁they	-6.74343
▁mood	-6.77815
▁well	-6.78759
▁having	-6.78869
▁5	-6.78987
▁4	-6.80175
ing	-6.80677
▁little	-6.81693
▁night	-6.82337
▁periods	-6.82423
▁sex	-6.82462
▁go	-6.83037
▁were	-6.84708
▁medicine	-6.85362
▁ago	-6.86023
▁made	-6.86561
▁skin	-6.86836
▁going	-6.88779
▁getting	-6.89369
ed	-6.91456
▁lost	-6.92891
d	-6.93843
▁again	-6.94035
▁gain	-6.94673
▁tried	-6.95375
▁cramps	-6.95695
▁put	-6.97556
▁last	-6.97986
▁6	-6.98352
▁by	-6.98801
▁what	-6.99526
▁mg	-7.00091
/	-7.00425
▁almost	-7.00884
▁bleeding	-7.01126
▁down	-7.03548
▁there	-7.03554
▁far	-7.04313
&	-7.04461
▁used	-7.04579
▁your	-7.0633
▁hours	-7.08004
▁ever	-7.08582
▁1	-7.09242
▁lot	-7.10502
▁experience	-7.10558
▁could	-7.10749
▁works	-7.10979
▁he	-7.11169
amp	-7.13678
▁recommend	-7.15226
▁being	-7.15743
▁worked	-7.15855
▁help	-7.15982
▁pounds	-7.17068
▁nothing	-7.17539
▁feeling	-7.17781
▁drug	-7.18083
▁think	-7.19331
▁dose	-7.19413
).	-7.20291
▁away	-7.21045
▁swings	-7.2105
▁prescribed	-7.23184
▁severe	-7.23215
▁try	-7.23303
▁too	-7.24088
▁know	-7.24282
▁stopped	-7.25393
▁love	-7.25504
▁haven	-7.25514
▁gained	-7.26237
▁use	-7.2628
▁normal	-7.27081
▁nausea	-7.27322
▁using	-7.28293
▁say	-7.28795
▁-	-7.28837
▁thing	-7.29122
▁body	-7.29176
▁while	-7.30587
▁long	-7.31222
▁however	-7.31413
▁spotting	-7.31419
▁always	-7.3173
▁pills	-7.31985
...	-7.32867
▁eat	-7.34849
▁worse	-7.34894
▁noticed	-7.34979
▁old	-7.35077
▁see	-7.35279
▁experienced	-7.36416
▁effect	-7.36948
▁helped	-7.37874
▁until	-7.38773
▁horrible	-7.38919
▁how	-7.38983
▁drive	-7.39419
▁want	-7.40198
▁times	-7.41125
▁make	-7.41473
▁blood	-7.41851
▁next	-7.42358
▁most	-7.42433
▁face	-7.42916
▁pregnant	-7.43052
▁different	-7.43171
▁taken	-7.43287
▁around	-7.43339
▁myself	-7.43399
▁does	-7.44059
▁lbs	-7.44668
▁morning	-7.45735
▁she	-7.47203
▁stop	-7.47474
▁right	-7.48038
▁without	-7.48314
▁once	-7.48846
▁headaches	-7.49083
▁happy	-7.49201
▁through	-7.50111
▁light	-7.50236
▁many	-7.50361
▁same	-7.50382
▁symptoms	-7.50549
▁during	-7.51337
▁its	-7.52002
▁three	-7.52573
▁these	-7.52815
▁due	-7.53758
▁we	-7.54423
▁sure	-7.55421
▁appetite	-7.55621
▁later	-7.55779
▁though	-7.55986
▁anything	-7.5677
▁less	-7.56942
this	-7.57338
▁best	-7.57341
▁things	-7.58049
▁give	-7.58843
▁people	-7.60397
▁finally	-7.61043
▁thought	-7.61226
▁couple	-7.61583
▁start	-7.61807
▁within	-7.62149
r	-7.62211
▁way	-7.62591
▁7	-7.62714
▁who	-7.62805
▁problems	-7.62812
▁####	-7.6303
▁painful	-7.6342
▁able	-7.63443
lbs	-7.63564
▁insertion	-7.63725
▁loss	-7.6398
▁something	-7.65399
▁8	-7.66095
▁cramping	-7.66227
ll	-7.6637
▁everything	-7.66489
▁gave	-7.66549
▁worst	-7.67136
▁pretty	-7.6724
▁couldn	-7.6725
▁completely	-7.67527
▁working	-7.67701
▁gone	-7.68182
▁said	-7.68849
▁second	-7.69114
▁heavy	-7.69323
▁wasn	-7.6979
▁definitely	-7.70006
▁another	-7.70242
▁bit	-7.70247
th	-7.70668
▁reviews	-7.70908
▁extremely	-7.70986
▁half	-7.71826
▁them	-7.71957
▁keep	-7.72197
▁need	-7.72286
:	-7.72338
▁into	-7.72797
▁starting	-7.73396
▁dry	-7.73458
▁may	-7.74381
▁depressed	-7.74777
▁told	-7.74961
▁terrible	-7.7633
▁high	-7.7683
▁tired	-7.76874
▁switched	-7.77143
▁new	-7.77548
▁worth	-7.77735
▁actually	-7.78132
▁decided	-7.7886
▁inserted	-7.7958
▁today	-7.79804
▁found	-7.8058
▁past	-7.80754
▁change	-7.83514
▁daily	-7.84333
▁where	-7.84735
▁came	-7.84749
▁everyone	-7.85166
▁effective	-7.86232
▁longer	-7.86676
my	-7.87377
▁issues	-7.87544
▁helps	-7.87697
▁doesn	-7.8865
▁seem	-7.88857
e	-7.8891
▁eating	-7.89065
▁trying	-7.89546
▁panic	-7.90227
▁fine	-7.90661
▁makes	-7.90739
▁stomach	-7.90878
▁problem	-7.92074
▁pressure	-7.92764
▁hope	-7.93054
▁low	-7.93128
▁lose	-7.932
▁b	-7.93263
ly	-7.9353
▁clear	-7.94154
▁sometimes	-7.94566
▁shot	-7.9486
▁changed	-7.95101
▁nexplanon	-7.95252
▁plan	-7.9541
▁pregnancy	-7.97173
▁energy	-7.97597
!!	-7.99529
▁dr	-8.0084
▁anyone	-8.01229
▁mirena	-8.01339
▁increased	-8.01641
▁full	-8.0196
▁overall	-8.02379
▁negative	-8.02681
▁read	-8.02774
▁find	-8.03574
▁bed	-8.03614
▁already	-8.0414
▁soon	-8.04614
▁insomnia	-8.0586
▁done	-8.05969
▁should	-8.06021
▁results	-8.06599
▁wanted	-8.07354
▁come	-8.07433
▁those	-8.07841
re	-8.08159
▁removed	-8.08837
▁mild	-8.08888
▁caused	-8.08965
▁hour	-8.09477
▁minutes	-8.10693
),	-8.11692
it	-8.11755
▁bc	-8.12677
▁iud	-8.12914
▁crazy	-8.12931
▁point	-8.13016
c	-8.13511
▁gotten	-8.14217
▁attacks	-8.15815
▁tell	-8.16002
▁absolutely	-8.16108
▁hard	-8.16115
▁enough	-8.16287
▁began	-8.16663
▁mouth	-8.1672
▁else	-8.16744
▁maybe	-8.16887
▁seems	-8.1712
▁exercise	-8.17204
▁dosage	-8.17245
▁implant	-8.1725
▁deal	-8.17585
▁insurance	-8.17704
▁anymore	-8.1794
▁diet	-8.18172
▁amazing	-8.18206
▁product	-8.1884
▁difference	-8.1896
▁meds	-8.19019
▁implanon	-8.19085
▁least	-8.19174
▁several	-8.19762
▁water	-8.21111
▁reason	-8.21346
▁became	-8.22167
▁twice	-8.22293
▁doing	-8.22486
▁food	-8.2255
▁stay	-8.2299
n	-8.23195
▁here	-8.23216
▁needed	-8.2322
▁recently	-8.23342
▁lexapro	-8.23694
▁patch	-8.2459
▁emotional	-8.24669
▁major	-8.24691
▁sick	-8.2497
▁hair	-8.25258
▁usually	-8.25286
▁everyday	-8.25313
▁lasted	-8.26115
▁whole	-8.26277
▁awful	-8.27011
▁person	-8.27332
▁asleep	-8.2805
▁end	-8.28126
▁extreme	-8.29005
▁lower	-8.29243
▁school	-8.29426
▁regular	-8.29718
▁given	-8.29873
▁small	-8.30264
▁nauseous	-8.30899
▁yet	-8.31114
▁break	-8.32446
▁relief	-8.32446
y	-8.32526
▁constant	-8.32992
▁job	-8.3305
▁remember	-8.33494
▁super	-8.33606
▁####.	-8.33966
▁cycle	-8.34145
▁sleeping	-8.34433
▁thoughts	-8.34558
▁wake	-8.34594
▁burning	-8.34806
▁reading	-8.35102
▁short	-8.35336
▁her	-8.36479
▁pack	-8.3649
▁constantly	-8.3665
▁moody	-8.36664
▁boyfriend	-8.36686
▁disorder	-8.36913
▁hurt	-8.37055
▁let	-8.37428
▁med	-8.37601
▁cleared	-8.38362
▁diagnosed	-8.38729
▁both	-8.38812
▁mind	-8.39517
▁etc	-8.3959
▁positive	-8.39693
▁headache	-8.39835
▁others	-8.39989
▁immediately	-8.40382
▁notice	-8.40399
▁hoping	-8.40561
▁heart	-8.40694
the	-8.41248
▁bipolar	-8.41523
x	-8.41989
▁why	-8.42374
▁part	-8.42851
▁although	-8.43687
a	-8.44508
squo	-8.44555
▁along	-8.44575
▁skyla	-8.44939
▁medications	-8.45745
▁breasts	-8.46115
▁highly	-8.46124
▁slight	-8.46477
▁per	-8.46593
▁migraines	-8.47162
▁such	-8.47573
!!!	-8.48114
▁hungry	-8.48357
▁free	-8.4928
▁either	-8.50109
▁increase	-8.5013
▁wait	-8.50592
▁medicines	-8.50867
▁each	-8.51411
▁believe	-8.51712
▁big	-8.52107
▁worry	-8.52156
▁yeast	-8.5231
▁hormones	-8.52335
▁left	-8.53131
st	-8.54147
▁probably	-8.5428
▁infection	-8.54453
▁wish	-8.54596
▁switch	-8.54643
▁suffered	-8.55349
▁scared	-8.55392
▁zoloft	-8.55798
▁beginning	-8.55997
▁itching	-8.56423
▁under	-8.56542
so	-8.57232
▁cream	-8.57382
▁anxious	-8.5776
▁xanax	-8.57832
▁wellbutrin	-8.57994
▁wouldn	-8.58492
in	-8.58975
▁crying	-8.59303
▁healthy	-8.59709
▁plus	-8.60013
▁continue	-8.6042
▁huge	-8.60855
▁sugar	-8.60999
▁stress	-8.61171
▁four	-8.61441
▁depo	-8.61443
▁fall	-8.61454
▁might	-8.61659
▁husband	-8.62025
▁his	-8.62426
▁quite	-8.62595
▁early	-8.62625
▁experiencing	-8.62705
▁head	-8.62856
▁adhd	-8.63317
▁thinking	-8.63489
▁literally	-8.63818
▁kind	-8.6391
▁him	-8.6462
▁dizzy	-8.64633
▁breast	-8.6503
▁become	-8.65359
▁tri	-8.65747
▁treatment	-8.66116
▁home	-8.66281
▁kept	-8.66525
▁recommended	-8.66827
▁ended	-8.66911
▁nuvaring	-8.67103
▁easy	-8.68103
▁woke	-8.68922
nd	-8.69511
▁except	-8.69618
▁late	-8.70044
▁third	-8.70097
▁contrave	-8.70345
▁lighter	-8.70589
▁dizziness	-8.70647
rd	-8.70773
▁honestly	-8.71109
▁doc	-8.71177
▁doctors	-8.71301
▁looking	-8.71515
▁drink	-8.71617
▁effexor	-8.71695
er	-8.7185
▁non	-8.72
▁son	-8.72083
▁fact	-8.72395
▁straight	-8.72404
▁switching	-8.7246
▁broke	-8.72561
▁making	-8.72832
▁pimples	-8.72879
▁changes	-8.72948
▁entire	-8.72999
▁arm	-8.73412
on	-8.73755
▁ambien	-8.73766
▁stuff	-8.74079
▁between	-8.74265
▁family	-8.74465
▁losing	-8.7447
▁er	-8.74578
▁coming	-8.74584
▁baby	-8.74622
▁self	-8.74734
▁goes	-8.75252
after	-8.75383
▁lo	-8.75534
▁chronic	-8.76278
▁kids	-8.76454
▁miracle	-8.76653
▁isn	-8.76769
▁prescription	-8.76799
▁cystic	-8.77318
▁yaz	-8.77396
▁irregular	-8.77911
▁hate	-8.78162
▁size	-8.7819
▁currently	-8.7836
▁cymbalta	-8.78523
▁luck	-8.78847
▁issue	-8.79102
▁generic	-8.79512
▁fe	-8.79702
▁active	-8.79861
▁focus	-8.79967
▁loved	-8.80094
▁cannot	-8.80359
▁care	-8.80414
▁won	-8.80623
▁trouble	-8.80849
▁cry	-8.80941
▁bleed	-8.80993
▁type	-8.81077
▁often	-8.81661
▁quickly	-8.81669
▁amount	-8.81846
▁instead	-8.82205
▁fatigue	-8.82667
▁glad	-8.82943
▁takes	-8.8297
▁loestrin	-8.83158
▁possible	-8.83713
▁happened	-8.83837
▁level	-8.84456
▁breakouts	-8.8463
▁uncomfortable	-8.84903
▁barely	-8.84904
▁fast	-8.84938
▁prozac	-8.85086
▁worried	-8.85298
▁cravings	-8.85418
▁chest	-8.85654
##	-8.85681
▁suffer	-8.85827
▁pristiq	-8.85886
▁add	-8.86037
▁weird	-8.8612
▁yes	-8.86502
l	-8.87296
▁decreased	-8.87441
▁bled	-8.8756
▁supposed	-8.87836
which	-8.88118
▁hopefully	-8.8905
▁please	-8.89095
▁someone	-8.89133
▁real	-8.89411
▁suicidal	-8.8963
▁totally	-8.89658
▁nearly	-8.89764
▁wonderful	-8.89789
▁intense	-8.89828
1	-8.90083
▁adderall	-8.90185
▁nervous	-8.90459
▁anti	-8.90486
am	-8.9063
▁prior	-8.90836
▁child	-8.90886
▁surgery	-8.91013
▁yrs	-8.91107
▁calm	-8.9118
▁seroquel	-8.91583
▁1/2	-8.91782
▁six	-8.92533
▁especially	-8.92699
▁review	-8.93278
▁brain	-8.93305
▁improved	-8.93491
▁red	-8.93775
▁guess	-8.94165
▁bloating	-8.94545
▁sore	-8.9462
▁gets	-8.94659
▁stick	-8.94836
▁look	-8.9509
▁libido	-8.95408
▁constipation	-8.95542
▁function	-8.95651
▁giving	-8.9573
▁normally	-8.96372
▁ortho	-8.96374
▁dermatologist	-8.96503
▁slightly	-8.96675
▁accutane	-8.97157
▁rather	-8.97324
▁sensitive	-8.974
▁unprotected	-8.97587
▁attack	-8.97738
▁rest	-8.97839
▁angry	-8.98047
▁yesterday	-8.9811
▁improvement	-8.98196
al	-8.98474
▁brand	-8.98476
▁vyvanse	-8.99427
no	-8.99681
▁quit	-8.99895
day	-9.00248
▁##-##	-9.00298
▁sad	-9.00662
▁their	-9.00867
▁slowly	-9.01024
▁pains	-9.01155
▁minor	-9.01217
▁hormonal	-9.0147
and	-9.01497
▁knew	-9.01609
▁withdrawal	-9.01672
▁2-3	-9.0176
▁hasn	-9.01769
▁age	-9.01837
▁developed	-9.02381
▁belviq	-9.02632
▁irritable	-9.03312
▁usual	-9.03348
or	-9.03449
▁live	-9.03479
▁wonders	-9.03803
▁perfect	-9.04381
▁lots	-9.04495
▁wear	-9.04572
▁must	-9.049
▁comes	-9.0491
▁hospital	-9.05176
▁none	-9.05186
▁pay	-9.05247
▁course	-9.05454
▁seen	-9.05529
▁post	-9.05672
▁asked	-9.06173
▁thank	-9.06295
▁occasional	-9.06419
▁mine	-9.06466
▁paxil	-9.06532
▁procedure	-9.06795
▁sprintec	-9.06807
▁sleepy	-9.06834
▁saw	-9.07007
▁levels	-9.07229
▁called	-9.07388
▁health	-9.07494
▁feels	-9.07547
▁zero	-9.07576
▁eventually	-9.0772
▁breakthrough	-9.07876
▁affects	-9.08141
▁xr	-9.08387
▁condom	-9.08557
▁easily	-9.08947
▁discharge	-9.09089
▁suffering	-9.09156
▁expensive	-9.09237
▁five	-9.09494
▁okay	-9.09613
▁spot	-9.10081
▁cut	-9.10909
▁handle	-9.11051
▁cost	-9.11172
▁weighed	-9.11315
▁children	-9.1159
▁epiduo	-9.11982
▁3-4	-9.12124
▁diarrhea	-9.12275
▁saved	-9.12524
▁total	-9.12566
▁friends	-9.1275
▁weigh	-9.12817
▁single	-9.12938
▁ring	-9.13051
▁term	-9.13622
▁suggested	-9.13757
▁bloated	-9.13857
▁serious	-9.13969
▁upset	-9.14152
▁celexa	-9.14248
▁chin	-9.14324
▁walk	-9.14416
▁place	-9.14526
▁phentermine	-9.14545
▁unfortunately	-9.14558
▁happen	-9.14634
▁moderate	-9.1492
▁march	-9.15086
▁women	-9.15304
▁own	-9.15317
▁unbearable	-9.15536
▁c	-9.15914
▁inside	-9.1593
▁seeing	-9.15973
▁minimal	-9.16164
▁helping	-9.16272
▁test	-9.16278
▁process	-9.16381
▁throughout	-9.16408
▁dreams	-9.16666
▁(##	-9.16851
▁ibuprofen	-9.17022
▁call	-9.17187
▁wrong	-9.17495
▁monistat	-9.17501
▁july	-9.17978
▁klonopin	-9.17989
▁hell	-9.18167
▁slept	-9.18443
g	-9.1873
....	-9.18795
▁female	-9.18865
▁appointment	-9.19439
▁nights	-9.19462
▁rate	-9.19582
▁muscle	-9.19693
▁leave	-9.19851
▁bp	-9.19994
▁drugs	-9.20127
▁neck	-9.20393
(	-9.20455
▁higher	-9.2085
▁pms	-9.20858
▁lamictal	-9.20979
▁lack	-9.21005
▁moods	-9.21092
▁hot	-9.213
es	-9.21338
▁method	-9.21487
▁vomiting	-9.22229
▁god	-9.2257
pm	-9.22593
▁june	-9.23017
▁difficult	-9.23073
not	-9.23087
▁annoying	-9.231
▁lasts	-9.23186
▁legs	-9.23191
▁psychiatrist	-9.23595
▁college	-9.23936
▁turned	-9.24088
▁tolerance	-9.24278
▁quick	-9.24308
▁awake	-9.24579
b	-9.24654
▁victoza	-9.24956
▁forget	-9.24964
▁social	-9.25109
▁combination	-9.2537
▁ok	-9.25575
▁daughter	-9.25973
▁causing	-9.26231
▁case	-9.26342
▁realized	-9.26738
▁nice	-9.27062
▁reduced	-9.27159
▁stayed	-9.27378
▁awesome	-9.27561
▁happier	-9.2762
▁mostly	-9.27801
▁breaking	-9.27906
▁continued	-9.28072
started	-9.28145
▁ready	-9.28318
as	-9.28526
▁reaction	-9.2887
▁cold	-9.28871
▁exactly	-9.28961
▁following	-9.29272
▁sexual	-9.29278
▁rid	-9.2971
▁stopping	-9.29842
###	-9.29903
▁august	-9.30196
▁talk	-9.30255
ness	-9.30287
▁our	-9.30327
for	-9.30355
▁extra	-9.30557
▁eyes	-9.30972
▁anyway	-9.31054
▁hit	-9.31149
p	-9.31299
▁january	-9.3137
▁emotions	-9.31384
▁close	-9.31723
but	-9.32031
▁pharmacy	-9.32824
▁gaining	-9.32909
▁update	-9.32984
▁says	-9.33231
▁strong	-9.33973
▁miserable	-9.34024
▁relationship	-9.34177
▁discomfort	-9.34397
▁october	-9.34503
▁area	-9.34808
▁evening	-9.34915
ic	-9.35034
at	-9.35139
▁basically	-9.35254
been	-9.35564
▁antidepressants	-9.35582
▁doses	-9.3563
▁random	-9.35781
▁middle	-9.36285
▁check	-9.36462
▁flow	-9.36507
▁form	-9.36657
▁x	-9.36812
▁injection	-9.3684
▁mental	-9.36841
▁truly	-9.36866
▁gives	-9.36913
▁considering	-9.36916
▁leg	-9.37033
▁system	-9.37118
▁prevent	-9.37229
▁placed	-9.3775
▁w	-9.37801
▁us	-9.37835
▁falling	-9.37865
▁:)	-9.3801
▁previously	-9.38054
▁april	-9.38534
▁changing	-9.38615
▁spotted	-9.38712
▁noticeable	-9.38808
▁####,	-9.38948
▁matter	-9.39083
▁mean	-9.39327
▁cons	-9.39344
▁cervix	-9.39382
▁miss	-9.39816
▁heard	-9.39919
▁paragard	-9.39981
u	-9.4004
▁excited	-9.40369
▁option	-9.40378
▁goal	-9.40436
▁hardly	-9.40493
▁besides	-9.40936
▁expected	-9.41132
▁easier	-9.41175
▁dropped	-9.41268
▁feelings	-9.414
▁cramp	-9.41495
▁deep	-9.41522
▁throw	-9.41541
o	-9.41689
▁vagina	-9.41754
▁afraid	-9.41869
▁cover	-9.41877
▁affect	-9.41977
▁differently	-9.42028
▁move	-9.42067
▁name	-9.42082
▁tender	-9.42393
▁waiting	-9.42465
▁drinking	-9.42497
▁waking	-9.43393
▁re	-9.43518
▁abilify	-9.43838
▁decrease	-9.44252
v	-9.44531
▁initially	-9.44583
▁idea	-9.44618
▁ask	-9.45056
▁gel	-9.45095
▁feet	-9.45258
▁cysts	-9.45317
▁infections	-9.455
▁latuda	-9.45997
▁general	-9.46094
▁antidepressant	-9.46245
▁research	-9.46299
▁subsided	-9.46348
▁tenderness	-9.46519
▁boobs	-9.46634
▁otherwise	-9.46836
▁migraine	-9.46885
▁pleased	-9.46893
▁december	-9.46944
▁house	-9.4757
▁heavier	-9.47682
▁manic	-9.47703
▁november	-9.47793
▁unable	-9.48003
▁itchy	-9.48018
▁taste	-9.48059
▁woman	-9.48111
▁cup	-9.4817
▁ladies	-9.48563
▁ones	-9.48714
▁added	-9.4872
▁finished	-9.48828
▁mess	-9.48862
▁walking	-9.48919
▁##.5	-9.49394
▁complete	-9.49942
▁ate	-9.50104
▁experiences	-9.50149
▁causes	-9.50393
▁metformin	-9.50413
▁run	-9.50616
▁avoid	-9.50624
▁anger	-9.50853
▁hrs	-9.50902
▁significant	-9.50915
▁estrogen	-9.51163
▁memory	-9.51265
▁hands	-9.51308
▁menstrual	-9.51497
est	-9.51613
▁ten	-9.51697
▁near	-9.51785
▁top	-9.51829
▁saying	-9.51843
▁racing	-9.52275
▁ativan	-9.52295
▁pre	-9.53176
▁seriously	-9.5335
▁aches	-9.53885
▁tomorrow	-9.5407
▁motivation	-9.54194
▁money	-9.54298
▁mention	-9.54313
▁lips	-9.54411
▁realize	-9.54776
▁un	-9.54778
▁turn	-9.5503
▁choice	-9.55101
had	-9.55168
▁february	-9.55227
▁vision	-9.55331
▁initial	-9.55418
▁spots	-9.55492
▁enjoy	-9.5558
▁write	-9.55793
▁concerta	-9.55803
▁afterwards	-9.5589
just	-9.56168
▁bought	-9.56615
▁together	-9.56728
▁yourself	-9.5673
▁nerve	-9.56736
▁yi	-9.5675
▁stand	-9.56851
▁looked	-9.56907
▁wash	-9.56987
▁helpful	-9.57022
▁thanks	-9.57073
▁stuck	-9.57552
▁careful	-9.57606
▁bigger	-9.57783
▁mid	-9.57933
▁treat	-9.58065
▁struggled	-9.5831
▁zombie	-9.58393
▁physical	-9.58465
▁talking	-9.5852
▁decision	-9.58756
▁bedtime	-9.59099
▁stable	-9.59331
▁adipex	-9.59462
if	-9.5955
▁missed	-9.59695
▁compared	-9.59728
▁suggest	-9.60068
▁chance	-9.60209
▁hormone	-9.60233
▁exercising	-9.60298
lb	-9.60358
▁burn	-9.60468
▁sit	-9.6047
▁buspar	-9.6068
have	-9.60914
▁whatsoever	-9.61145
▁alone	-9.61145
▁result	-9.61212
▁slow	-9.61278
f	-9.61337
▁forehead	-9.61394
▁share	-9.61416
▁adjust	-9.61965
▁hand	-9.62103
▁fell	-9.62113
▁including	-9.62167
▁oily	-9.62403
▁occasionally	-9.62437
▁dryness	-9.62558
▁vaginal	-9.63108
▁saxenda	-9.63131
▁sweating	-9.6319
▁oh	-9.63231
▁lithium	-9.63263
▁friend	-9.63408
▁downside	-9.63458
▁desire	-9.63521
▁tramadol	-9.6365
▁begin	-9.63808
▁world	-9.63996
was	-9.64047
▁complaints	-9.64111
▁understand	-9.64136
▁swollen	-9.6425
▁fat	-9.64409
▁success	-9.64614
when	-9.64951
▁episodes	-9.64998
▁partner	-9.6501
--	-9.65118
▁hated	-9.65264
▁tablet	-9.65463
▁gym	-9.65515
▁despit	-9.65675
▁similar	-9.65782
▁cheeks	-9.65804
.5	-9.65868
▁drop	-9.65874
▁significantly	-9.66068
▁percocet	-9.66253
▁scary	-9.66304
▁previous	-9.66381
▁scale	-9.6642
▁itch	-9.66487
▁september	-9.66557
▁pros	-9.66617
▁price	-9.66646
▁rarely	-9.66819
like	-9.67006
▁loose	-9.67573
▁forward	-9.67625
▁breakout	-9.67683
▁preventing	-9.67989
▁viibryd	-9.68249
▁meal	-9.68402
▁pm	-9.68482
▁hunger	-9.68497
▁cried	-9.68497
▁focused	-9.68604
▁looks	-9.68615
▁antibiotics	-9.68794
▁wonder	-9.68884
le	-9.68917
▁advice	-9.69022
▁disappeared	-9.69055
▁drowsy	-9.69157
▁tests	-9.69397
ther	-9.69824
▁regularly	-9.69829
▁mom	-9.69959
▁breath	-9.70031
▁covered	-9.7023
▁passed	-9.70305
▁aren	-9.70324
▁yasmin	-9.7037
▁putting	-9.70437
▁large	-9.70438
▁main	-9.7059
▁strange	-9.70727
▁frequent	-9.71128
▁multiple	-9.71165
▁regulate	-9.71191
▁calories	-9.71395
▁lutera	-9.71576
▁fear	-9.71695
▁mother	-9.71704
▁irritability	-9.71711
▁state	-9.71733
▁reduce	-9.71888
▁abdominal	-9.72251
▁swelling	-9.7227
h	-9.72476
▁rash	-9.72509
▁affected	-9.72517
▁alcohol	-9.72518
▁stories	-9.72519
▁afternoon	-9.72669
▁dark	-9.72781
▁condition	-9.7279
▁biggest	-9.72796
▁prescribe	-9.73384
▁syndrome	-9.7362
▁controls	-9.73678
▁increasing	-9.73759
▁happens	-9.73895
▁shorter	-9.74102
▁keeping	-9.74311
▁lol	-9.74371
▁related	-9.74384
▁somewhat	-9.74502
you	-9.74712
▁kick	-9.74977
▁complaint	-9.75185
▁nightmares	-9.75263
▁till	-9.75299
▁patient	-9.75328
▁tablets	-9.75353
▁foods	-9.7537
▁pimple	-9.75452
▁male	-9.75619
▁concentrate	-9.75904
!!!!	-9.76023
▁4-5	-9.76159
▁buy	-9.76175
▁fire	-9.76325
▁numb	-9.76363
▁staying	-9.76512
▁ssri	-9.76606
▁tiredness	-9.76637
w	-9.76732
▁greatly	-9.7688
▁living	-9.76999
▁itself	-9.77193
▁seconds	-9.77196
▁sugars	-9.77335
▁ease	-9.77368
▁###/##	-9.77399
▁sense	-9.77429
▁mins	-9.77649
▁habits	-9.77696
▁2.5	-9.7774
▁manageable	-9.7787
▁effectiveness	-9.77923
▁uterus	-9.78006
▁patches	-9.78052
▁accident	-9.78344
▁follow	-9.78543
took	-9.78563
▁car	-9.7866
▁site	-9.78846
▁brown	-9.78851
▁d	-9.78887
▁moodiness	-9.78928
▁safe	-9.79066
▁concerned	-9.79522
▁trinessa	-9.79759
▁scars	-9.79783
▁nor	-9.79943
▁nightmare	-9.79952
▁benefits	-9.80086
▁aviane	-9.80214
▁p	-9.80312
▁saver	-9.80558
▁insert	-9.80592
▁l	-9.80845
▁minute	-9.80847
▁severely	-9.80963
▁market	-9.81239
▁room	-9.81256
▁relax	-9.81386
▁finish	-9.81628
▁vicodin	-9.81703
▁allergic	-9.81713
▁intercourse	-9.81989
k	-9.82019
▁disease	-9.82139
▁norco	-9.82311
▁returned	-9.82513
▁!	-9.82562
▁oral	-9.82983
▁wanting	-9.83081
able	-9.83252
▁incredibly	-9.83352
ling	-9.83375
▁office	-9.8368
▁yr	-9.83687
▁pound	-9.84263
▁therapy	-9.84297
▁pass	-9.84357
▁clearing	-9.84394
▁bathroom	-9.84426
▁aware	-9.84488
▁n	-9.84503
▁depressive	-9.84598
▁spent	-9.85045
▁quality	-9.85355
▁exhausted	-9.85513
▁risk	-9.85735
▁important	-9.85797
▁nauseated	-9.86018
▁valium	-9.86158
▁rough	-9.86258
▁upped	-9.8653
▁disc	-9.86545
▁set	-9.86555
▁lasting	-9.86572
▁stressed	-9.86641
▁whe	-9.86904
▁expect	-9.8703
▁groggy	-9.87082
▁nurse	-9.87352
▁smaller	-9.87478
▁adult	-9.8767
an	-9.87713
▁dinner	-9.87729
▁fairly	-9.87893
▁lunesta	-9.87899
▁joint	-9.88117
▁knee	-9.88159
▁counter	-9.88169
▁trazodone	-9.8822
▁lay	-9.88335
▁originally	-9.88397
do	-9.88455
▁contraceptive	-9.8847
▁moved	-9.88672
▁white	-9.88706
to	-9.88707
▁finding	-9.88737
▁sensation	-9.88793
▁obgyn	-9.88841
▁track	-9.88887
▁satisfied	-9.89162
▁sweats	-9.89172
▁co	-9.89181
▁tylenol	-9.89339
▁microgestin	-9.89487
▁young	-9.89542
▁remove	-9.89559
up	-9.89736
hi	-9.89797
▁common	-9.89821
▁tend	-9.90011
▁struggling	-9.90137
▁perfectly	-9.90221
▁true	-9.90315
▁min	-9.90355
very	-9.90476
▁ritalin	-9.90486
▁personally	-9.90537
▁brought	-9.90635
▁comments	-9.90734
▁badly	-9.90735
▁medical	-9.90858
▁freaking	-9.91019
▁lucky	-9.91044
▁condoms	-9.91046
▁tolerable	-9.91121
▁release	-9.91213
▁story	-9.91287
▁oxycontin	-9.91315
▁unless	-9.91491
▁watch	-9.91586
▁history	-9.91617
well	-9.91858
▁gabapentin	-9.92141
▁painless	-9.92145
▁cr	-9.92467
▁hurts	-9.92698
▁nose	-9.928
▁controlled	-9.92859
▁1-2	-9.92959
▁online	-9.92966
▁ability	-9.93062
▁apri	-9.93135
▁tiny	-9.9329
▁girl	-9.93297
▁meals	-9.93344
▁figured	-9.93379
▁insane	-9.93591
▁apply	-9.9404
▁fibromyalgia	-9.94134
▁becoming	-9.94171
▁ran	-9.94194
▁pad	-9.94326
▁fix	-9.94396
▁sort	-9.94429
▁sudden	-9.94439
▁...	-9.94633
▁mistake	-9.94653
▁likely	-9.94704
▁relaxed	-9.94766
ting	-9.94927
▁needs	-9.95018
▁trial	-9.95059
ally	-9.95139
▁awhile	-9.95265
▁intake	-9.95485
▁moment	-9.95507
ation	-9.95599
▁gyno	-9.95679
▁driving	-9.95848
▁drowsiness	-9.95856
▁diabetes	-9.95864
####	-9.96076
▁gradually	-9.96201
of	-9.96641
▁bumps	-9.96674
▁sucks	-9.96769
▁xl	-9.96778
▁thankful	-9.96862
anxiety	-9.96979
▁episode	-9.97083
▁irritated	-9.97089
▁range	-9.97135
▁monthly	-9.97182
▁restless	-9.97275
▁generally	-9.973
▁certain	-9.97349
▁oil	-9.97392
▁vivid	-9.97426
▁attention	-9.97607
cyclen	-9.97845
▁natural	-9.97935
▁alot	-9.98153
ul	-9.98483
▁average	-9.98485
▁fantastic	-9.98676
▁clots	-9.98731
▁jaw	-9.9884
▁suddenly	-9.98868
▁placebo	-9.99035
▁1.5	-9.99124
▁earlier	-9.99188
▁summer	-9.99367
▁terrified	-9.99368
▁addition	-9.99529
▁routine	-9.99546
▁qsymia	-9.99556
▁tremendously	-9.99736
▁mania	-9.99795
ol	-9.99867
▁tolerate	-9.99991
▁wife	-10.0009
▁##/##	-10.001
first	-10.0019
▁arms	-10.0021
▁lifestyle	-10.0027
▁running	-10.0045
▁flashes	-10.0046
▁fun	-10.0063
▁edge	-10.0069
▁removal	-10.0082
▁arthritis	-10.0101
▁noticing	-10.0118
▁broken	-10.0145
▁sharp	-10.0153
▁fully	-10.0153
▁insulin	-10.0154
▁ovulation	-10.0155
▁nucynta	-10.0174
▁actual	-10.0205
▁consider	-10.0225
▁situation	-10.0229
▁followed	-10.024
▁mentioned	-10.0243
▁opinion	-10.0246
less	-10.0261
▁obviously	-10.0266
ine	-10.0276
works	-10.031
▁strattera	-10.0322
▁difficulty	-10.0325
▁eye	-10.0344
▁relieved	-10.0347
▁cough	-10.0348
▁visit	-10.0352
▁chose	-10.0355
▁oxycodone	-10.0359
▁"##	-10.0381
▁ovarian	-10.0413
▁excruciating	-10.0414
▁scare	-10.0418
▁sexually	-10.0421
▁immediate	-10.0431
▁con	-10.0456
▁grade	-10.0465
▁liked	-10.0466
▁open	-10.0468
▁starts	-10.0475
▁talked	-10.0491
▁junel	-10.0492
▁schedule	-10.05
▁gp	-10.0506
▁tingling	-10.0508
▁sweets	-10.0509
▁cyst	-10.0514
▁anyways	-10.052
▁trulicity	-10.0546
▁breakfast	-10.0546
normal	-10.0556
en	-10.057
▁manage	-10.0574
▁dilaudid	-10.0585
▁emotionally	-10.0587
▁bother	-10.0599
▁sun	-10.06
▁shower	-10.0604
▁line	-10.0607
▁waited	-10.0612
▁lately	-10.0617
▁smooth	-10.0618
▁concentration	-10.0642
▁advil	-10.0642
▁opana	-10.0643
▁fit	-10.0647
us	-10.0657
▁ob	-10.0658
▁suicide	-10.0661
▁received	-10.0664
▁version	-10.0699
▁against	-10.0717
one	-10.0724
▁trust	-10.073
▁options	-10.0737
z	-10.0742
▁moving	-10.0757
▁confidence	-10.0759
▁monday	-10.0759
▁known	-10.0763
▁horror	-10.0778
▁irritation	-10.0796
▁paranoid	-10.0796
▁knowing	-10.0809
▁lowered	-10.0816
▁addictive	-10.082
▁continues	-10.0824
▁figure	-10.0826
▁physician	-10.0855
▁debilitating	-10.0894
▁e	-10.0895
▁man	-10.0897
▁mainly	-10.0903
lo	-10.0909
▁ocd	-10.0919
▁clean	-10.0937
▁touch	-10.0953
/##	-10.0953
il	-10.0991
▁outweigh	-10.1
▁wearing	-10.1005
sprintec	-10.1008
▁impossible	-10.1013
.6	-10.1021
▁force	-10.1036
▁shoulder	-10.1039
▁threw	-10.1053
▁failed	-10.1117
▁afford	-10.1133
▁hadn	-10.1173
▁wants	-10.1177
▁approximately	-10.1194
▁tampons	-10.1221
▁7.5	-10.1228
▁consistent	-10.1231
ar	-10.1252
▁class	-10.1254
▁comfortable	-10.1276
!)	-10.1279
.##	-10.1287
▁subside	-10.13
effects	-10.1314
▁agree	-10.1328
▁odd	-10.1334
▁count	-10.1344
um	-10.1357
▁tampon	-10.1374
▁motivated	-10.138
▁hyper	-10.1386
▁topical	-10.1398
▁simply	-10.1402
▁hold	-10.1409
yrs	-10.1416
▁redness	-10.1423
▁struggle	-10.1425
▁excellent	-10.1432
▁bi	-10.1443
▁consistently	-10.1445
▁personality	-10.1462
▁morphine	-10.1463
▁coffee	-10.1483
▁interest	-10.1483
▁skip	-10.1484
▁return	-10.1504
▁fingers	-10.1504
▁send	-10.151
▁friday	-10.1526
▁hopeful	-10.1535
▁reach	-10.1536
▁weak	-10.1563
▁company	-10.1588
▁forgot	-10.1591
▁:(	-10.1594
▁clearer	-10.1603
▁lunch	-10.1609
▁lowest	-10.1623
▁products	-10.1638
▁headed	-10.1641
▁psych	-10.1648
▁moisturizer	-10.1653
▁instantly	-10.1653
▁benefit	-10.1667
▁remeron	-10.1676
▁stressful	-10.1677
wards	-10.1682
▁exact	-10.169
▁happening	-10.1703
all	-10.1733
▁number	-10.1734
▁available	-10.1739
▁tough	-10.1755
▁ache	-10.1755
▁program	-10.1758
ro	-10.1761
▁makeup	-10.1767
▁depakote	-10.1783
▁freaked	-10.1787
▁grateful	-10.1801
▁mad	-10.1802
▁confident	-10.1802
▁--	-10.1815
▁emergency	-10.1823
▁withdrawals	-10.1828
2	-10.183
ur	-10.1848
▁damage	-10.1856
▁simple	-10.1864
▁convenient	-10.1866
▁crave	-10.1888
▁carbs	-10.1894
▁wow	-10.1901
▁rapid	-10.1908
▁date	-10.1921
▁knock	-10.1934
▁disappointed	-10.1953
▁faster	-10.196
▁die	-10.196
▁improve	-10.1962
▁pulled	-10.1963
▁flu	-10.1964
▁1/##	-10.1967
▁diabetic	-10.1984
ion	-10.1988
▁stops	-10.1988
▁tears	-10.2017
ra	-10.2034
▁means	-10.2042
▁seven	-10.2059
▁bring	-10.2062
▁mark	-10.208
▁forever	-10.2098
▁worrying	-10.2123
▁regulated	-10.2124
▁react	-10.2129
▁teeth	-10.213
▁workout	-10.216
▁throat	-10.2175
▁sent	-10.2175
▁married	-10.2175
▁cancer	-10.2176
▁girls	-10.2177
▁fog	-10.2187
▁1.2	-10.2198
▁sooner	-10.2212
▁above	-10.222
▁order	-10.2222
▁sweat	-10.2227
me	-10.2242
▁ptsd	-10.2245
▁learned	-10.2248
▁mixed	-10.2249
▁regret	-10.2252
el	-10.2261
▁empty	-10.2265
▁future	-10.2265
▁overweight	-10.2272
▁treated	-10.2284
▁basis	-10.2287
▁imagine	-10.2301
▁craving	-10.2309
▁nasty	-10.231
▁student	-10.231
▁pleasant	-10.2311
-##	-10.2312
▁note	-10.2314
▁cycles	-10.2348
▁###-###	-10.2354
▁absolute	-10.2355
▁aczone	-10.2358
▁pinch	-10.2368
▁..	-10.2391
▁wor	-10.2392
▁tonight	-10.2412
▁burns	-10.2417
▁cure	-10.2417
▁thyroid	-10.2424
▁surprised	-10.243
▁show	-10.243
ity	-10.2445
4	-10.2455
▁sitting	-10.2471
▁cyclen	-10.2471
▁numbers	-10.2476
▁physically	-10.2477
▁mentally	-10.2479
▁card	-10.2483
mgs	-10.2488
▁apart	-10.2494
▁checked	-10.2494
▁palpitations	-10.2496
▁grades	-10.2509
ry	-10.2528
▁thin	-10.2538
▁surgeries	-10.254
▁aid	-10.2544
▁fourth	-10.2563
▁sunday	-10.2567
▁list	-10.2576
ch	-10.2582
▁ridiculous	-10.2583
▁acid	-10.2587
▁attempt	-10.2587
▁pull	-10.2615
▁types	-10.2623
▁balance	-10.2628
▁turkey	-10.2633
even	-10.2636
▁beyaz	-10.2639
▁addiction	-10.2657
▁ton	-10.2663
ter	-10.2669
▁breathing	-10.2676
▁lisinopril	-10.2705
▁personal	-10.2711
▁jittery	-10.2753
▁step	-10.2763
▁certainly	-10.278
▁combined	-10.278
▁admit	-10.2798
▁writing	-10.2799
▁worsened	-10.2804
▁speak	-10.2811
▁suppose	-10.2813
▁rare	-10.2823
▁hear	-10.2825
▁thankfully	-10.283
▁whenever	-10.2834
▁relieve	-10.2837
▁adjusted	-10.2842
▁allowed	-10.2853
▁weighing	-10.2857
▁rating	-10.2873
▁loving	-10.2894
▁numerous	-10.2894
▁randomly	-10.2903
▁excessive	-10.294
▁nuva	-10.2944
▁teenager	-10.2945
▁behavior	-10.2945
▁prone	-10.2946
▁bottle	-10.2946
▁tons	-10.2952
▁generalize	-10.2965
▁reacts	-10.2969
about	-10.2972
▁concern	-10.2999
▁needless	-10.3006
▁outside	-10.3008
▁reasons	-10.301
▁clonazepam	-10.3019
▁adverse	-10.304
▁dramatically	-10.304
▁doxycycline	-10.3042
▁remembering	-10.3046
▁babies	-10.3064
▁stone	-10.3064
▁pro	-10.3067
ish	-10.3072
▁upper	-10.3078
only	-10.3087
▁skeptical	-10.3089
▁complain	-10.3089
ies	-10.3099
▁hip	-10.3103
▁ovulating	-10.3114
▁facial	-10.3115
▁poor	-10.3135
▁liletta	-10.3138
▁unlike	-10.3139
▁alternative	-10.3143
▁contraception	-10.3163
▁lead	-10.3168
▁bone	-10.3177
▁clinic	-10.3198
▁clearly	-10.3201
▁massive	-10.3209
▁solution	-10.3212
▁various	-10.3212
▁rage	-10.3218
▁peeling	-10.3218
▁pcos	-10.3239
great	-10.3243
▁implanted	-10.3248
▁grew	-10.3262
▁samples	-10.3263
▁seasonique	-10.3289
▁aside	-10.3304
▁smoking	-10.3314
▁properly	-10.3314
▁kidney	-10.332
▁reactions	-10.3332
▁wondering	-10.3333
▁save	-10.3335
▁(###	-10.3337
▁gas	-10.334
▁hopes	-10.3342
▁calorie	-10.3344
▁store	-10.337
▁productive	-10.339
▁ice	-10.339
▁citalopram	-10.3391
▁discontinued	-10.3396
▁h	-10.3403
▁applied	-10.3414
▁bump	-10.3427
▁snack	-10.3436
▁hang	-10.3438
▁shaking	-10.3438
▁mornings	-10.3447
▁liver	-10.3457
▁replaced	-10.3468
▁based	-10.347
▁foot	-10.3491
▁waste	-10.3502
▁unusual	-10.3506
▁willing	-10.3507
▁black	-10.3509
ta	-10.3512
▁strings	-10.3514
▁luckily	-10.3517
la	-10.3522
▁acting	-10.3529
un	-10.3535
▁bearable	-10.3541
▁advised	-10.3548
▁burned	-10.3562
▁management	-10.3567
▁death	-10.3568
▁lie	-10.3592
▁shots	-10.3609
▁heavily	-10.3618
▁sound	-10.3631
▁uncontrollable	-10.3644
▁inserting	-10.3663
▁protection	-10.367
▁tasks	-10.3683
▁horribly	-10.3696
▁plenty	-10.3696
▁alesse	-10.3698
▁stronger	-10.37
▁max	-10.3701
▁orgasm	-10.3705
▁born	-10.3722
▁frequently	-10.3729
▁ruined	-10.3757
▁carry	-10.3775
depressants	-10.3786
▁everybody	-10.3803
▁anywhere	-10.3804
ability	-10.3814
se	-10.3864
▁iv	-10.3865
▁smell	-10.388
▁spinal	-10.3883
▁geodon	-10.3883
▁injections	-10.3885
out	-10.3897
▁frustrating	-10.3907
▁incident	-10.3908
▁belsomra	-10.3908
▁saphris	-10.3909
▁sleepiness	-10.3913
▁pharmacist	-10.3933
▁healthier	-10.3934
before	-10.3943
▁thus	-10.396
▁calmer	-10.3967
▁managed	-10.3974
▁missing	-10.399
▁situations	-10.4007
▁adjusting	-10.4011
▁nap	-10.4031
▁abnormal	-10.4037
5	-10.4061
▁symptom	-10.4082
▁report	-10.4086
▁honest	-10.4089
▁everywhere	-10.4097
depression	-10.4106
▁de	-10.4109
▁zyprexa	-10.4125
▁killed	-10.4129
ary	-10.4142
▁supply	-10.4149
▁whatever	-10.4157
▁glucose	-10.4177
▁dream	-10.4179
▁decide	-10.4194
▁hesitant	-10.4204
▁lethargic	-10.4204
▁possibly	-10.4208
▁miles	-10.4216
▁spells	-10.4222
▁double	-10.4223
▁liner	-10.4224
▁kyleena	-10.4231
▁mgs	-10.4247
▁portions	-10.4253
▁current	-10.4257
▁apparently	-10.4261
▁marks	-10.4262
▁roof	-10.4287
▁lifted	-10.4295
▁script	-10.4316
▁wreck	-10.436
▁scares	-10.4362
▁allows	-10.4369
▁frustrated	-10.4371
▁lb	-10.4375
▁progress	-10.4388
▁brintellix	-10.4398
▁trick	-10.4399
▁convinced	-10.44
▁expecting	-10.4417
▁invokana	-10.4428
▁5-6	-10.443
▁play	-10.4433
▁vomit	-10.4434
▁sickness	-10.4434
▁calmed	-10.4472
▁patients	-10.4479
▁mirtazapine	-10.4485
▁bar	-10.4489
▁injury	-10.451
▁drastically	-10.4511
▁horrific	-10.4512
ment	-10.4514
▁creams	-10.4536
▁panty	-10.4539
▁differin	-10.4545
▁bouts	-10.4546
▁coupon	-10.4567
▁strength	-10.4569
▁posted	-10.4579
▁/	-10.4587
▁urge	-10.4589
co	-10.459
got	-10.4594
▁lifesaver	-10.4598
▁kid	-10.4612
▁gianvi	-10.4625
▁copper	-10.4626
▁wean	-10.4641
▁duac	-10.4653
▁maintain	-10.4661
▁round	-10.4676
ent	-10.468
▁dangerous	-10.4683
▁foggy	-10.4684
be	-10.4687
▁curb	-10.4692
▁associated	-10.4712
▁extended	-10.4713
▁sadness	-10.4714
age	-10.4725
▁ways	-10.4736
▁agitated	-10.4739
▁clothes	-10.4739
▁f	-10.4756
▁beyond	-10.4768
▁paid	-10.4768
▁fight	-10.4775
▁watching	-10.4788
▁rx	-10.4799
▁crap	-10.4804
▁push	-10.4807
▁filled	-10.4809
▁pick	-10.4835
▁freak	-10.4836
▁levora	-10.4856
▁hives	-10.4856
▁warned	-10.4862
ty	-10.4885
▁thirsty	-10.4886
▁combo	-10.4915
▁minastrin	-10.4916
▁ocella	-10.4917
▁hydrocodone	-10.4917
▁complaining	-10.4928
▁melatonin	-10.4945
▁harder	-10.4961
te	-10.4962
mo	-10.4978
▁planned	-10.4982
kg	-10.4989
▁opposite	-10.5003
▁otc	-10.5003
▁topamax	-10.5005
▁bupropion	-10.5006
▁cope	-10.5023
ate	-10.5045
▁dying	-10.5063
▁planning	-10.5094
▁numbness	-10.5095
▁hurting	-10.5096
▁fatigued	-10.5115
▁stupid	-10.5123
▁blue	-10.5125
▁asking	-10.5135
▁regimen	-10.5154
▁zaps	-10.5164
▁areas	-10.5195
▁treatments	-10.5201
▁antibiotic	-10.5205
▁boy	-10.5205
▁carb	-10.5206
▁bydureon	-10.5215
▁naturally	-10.522
▁recent	-10.524
▁protein	-10.5244
▁ruin	-10.5257
▁scarring	-10.5274
▁blame	-10.5296
▁patience	-10.5307
▁retin	-10.5308
▁fertile	-10.5309
▁discontinue	-10.5326
▁choices	-10.5335
▁bruising	-10.5336
▁sweet	-10.5337
▁bruise	-10.5357
stop	-10.5383
▁sign	-10.5391
relatively	-10.5397
▁endometriosis	-10.5397
▁focalin	-10.5398
▁sertraline	-10.54
ful	-10.5403
▁breastfeeding	-10.5429
▁lightheaded	-10.5432
never	-10.5448
▁abuse	-10.545
▁bowel	-10.5452
▁zits	-10.5457
▁pads	-10.5461
▁pop	-10.5471
▁.##	-10.5472
▁traumatic	-10.549
▁wide	-10.5491
▁st	-10.5493
▁steady	-10.5522
▁scheduled	-10.5539
▁terribly	-10.5553
▁applying	-10.5573
▁methadone	-10.5588
▁larger	-10.5596
▁stays	-10.5597
▁device	-10.5616
▁obsessive	-10.5616
that	-10.562
ex	-10.564
▁leaving	-10.5648
▁addicted	-10.5653
▁older	-10.5656
▁goodness	-10.5659
▁describe	-10.567
▁present	-10.568
depressant	-10.5693
▁negatives	-10.5693
▁shoulders	-10.5697
▁##/###	-10.5701
▁occur	-10.5706
▁readings	-10.5708
▁lotion	-10.5708
▁refreshed	-10.5711
▁flare	-10.5738
▁solid	-10.5743
▁pee	-10.5744
▁diagnosis	-10.5746
▁y	-10.5753
▁sister	-10.5775
▁knees	-10.5785
ce	-10.5792
▁build	-10.5796
▁attribute	-10.5804
▁pregnancies	-10.5807
▁paraguard	-10.581
ok	-10.5825
▁(2	-10.5843
▁feb	-10.5861
▁busy	-10.5873
▁saturday	-10.5874
▁listen	-10.5884
▁eight	-10.5902
▁drank	-10.5904
▁explain	-10.5927
▁scar	-10.5927
▁metabolism	-10.5937
▁teen	-10.5938
▁magic	-10.5938
▁onto	-10.5943
▁boost	-10.5957
worked	-10.5963
▁treating	-10.5968
▁replacement	-10.597
▁heartburn	-10.597
▁hallucinations	-10.5972
▁phone	-10.5975
3	-10.5976
▁crampy	-10.5978
▁brands	-10.5988
▁kicked	-10.5993
▁effort	-10.6002
▁choose	-10.6002
▁shortly	-10.6003
▁thru	-10.6005
▁purpose	-10.6032
▁horrendous	-10.6035
▁trazadone	-10.6035
▁guys	-10.6096
▁prefer	-10.6101
▁attitude	-10.6101
▁energetic	-10.6101
▁laid	-10.6102
▁discovered	-10.6136
▁protected	-10.6139
▁breathe	-10.6154
ers	-10.616
▁advise	-10.6163
▁ears	-10.6178
▁discs	-10.6181
▁beat	-10.6186
hrs	-10.6189
▁laying	-10.6191
with	-10.6193
▁highest	-10.6214
▁muscles	-10.622
horrible	-10.6225
▁limit	-10.6225
▁additional	-10.6234
▁virtu	-10.6235
▁spine	-10.6236
▁gad	-10.6239
▁perhaps	-10.6269
▁weekend	-10.6275
▁paying	-10.6288
▁incredible	-10.6303
▁unpleasant	-10.6303
▁benadryl	-10.6304
▁lightly	-10.6316
▁below	-10.6318
▁covers	-10.6331
▁dramatic	-10.6336
▁local	-10.6337
▁blurred	-10.6338
▁sample	-10.637
▁bottom	-10.637
▁fan	-10.6373
▁prepared	-10.6374
▁signs	-10.6378
▁numbing	-10.6397
▁ssris	-10.6399
▁ultrasound	-10.6405
▁amazed	-10.6405
▁gildess	-10.6407
▁binge	-10.6407
▁confused	-10.6439
▁specialist	-10.644
▁sat	-10.6445
▁potential	-10.6474
▁bf	-10.6479
▁cheaper	-10.6509
we	-10.6515
▁sticking	-10.6534
▁battle	-10.6542
▁###/###	-10.6562
▁junk	-10.6567
▁degenerative	-10.6578
▁diflucan	-10.6578
▁affecting	-10.658
▁raised	-10.6581
▁growing	-10.6587
▁jan	-10.6588
▁forced	-10.6595
op	-10.6597
hello	-10.6616
▁activity	-10.6617
▁allow	-10.6634
▁cramped	-10.6647
.....	-10.6647
▁dec	-10.6651
▁weaned	-10.6659
▁g	-10.666
▁methods	-10.666
▁led	-10.667
▁reclipsen	-10.6683
▁bystolic	-10.6684
▁benicar	-10.6684
▁directed	-10.6684
▁minocycline	-10.6684
▁considered	-10.6701
▁neither	-10.6717
▁tongue	-10.6717
▁abdomen	-10.6718
▁caffeine	-10.6753
▁byetta	-10.6754
▁finishing	-10.678
▁places	-10.6788
▁doubt	-10.6789
▁soda	-10.679
▁lortab	-10.6792
▁alive	-10.6804
▁agreed	-10.6805
▁tight	-10.6808
since	-10.6816
▁develop	-10.6818
▁md	-10.6822
▁pocket	-10.6825
▁required	-10.6829
▁hopeless	-10.683
love	-10.6834
free	-10.685
▁shake	-10.6859
▁website	-10.6895
▁balanced	-10.691
na	-10.6924
although	-10.6924
month	-10.6927
▁answer	-10.6934
now	-10.6938
▁listed	-10.6946
▁benzos	-10.6959
▁4-6	-10.697
▁lessened	-10.6976
ated	-10.7007
▁roughly	-10.7012
▁wise	-10.7015
▁beautiful	-10.7037
▁key	-10.704
▁cutting	-10.7042
▁box	-10.7043
▁typically	-10.7043
ted	-10.7048
ping	-10.7049
pr	-10.7052
▁spend	-10.7065
tic	-10.7066
▁cool	-10.7066
▁kinds	-10.7072
▁fair	-10.7073
▁marriage	-10.7076
▁bright	-10.7076
▁heating	-10.7095
▁###/##.	-10.7107
min	-10.7108
▁fasting	-10.7111
▁application	-10.7113
▁prevented	-10.7114
▁ride	-10.7116
▁yeah	-10.7118
he	-10.7128
▁stated	-10.7139
okay	-10.7143
▁app	-10.7147
▁activities	-10.715
▁blackheads	-10.7154
▁blown	-10.7158
▁stimulant	-10.7162
▁fighting	-10.7164
▁strongly	-10.7164
▁include	-10.7177
▁pulse	-10.7186
▁aggressive	-10.7186
▁successful	-10.7188
▁flat	-10.7193
don	-10.72
▁(3	-10.7214
▁lyrica	-10.7224
sh	-10.723
▁habit	-10.7231
▁narcotic	-10.7236
tri	-10.7239
polar	-10.7254
▁alert	-10.726
▁worries	-10.7261
▁warning	-10.728
▁died	-10.7285
▁la	-10.7286
worst	-10.7292
▁funny	-10.7299
ha	-10.7303
▁contact	-10.7304
▁guy	-10.7304
▁refill	-10.7331
▁tuesday	-10.7335
▁row	-10.7336
▁tho	-10.7338
yr	-10.7339
▁limited	-10.7347
▁impact	-10.7363
▁weaning	-10.7388
ant	-10.7407
▁impressed	-10.7411
▁overwhelming	-10.7412
▁paranoia	-10.7412
▁mo	-10.7417
▁reached	-10.7429
▁parents	-10.7429
▁dis	-10.7432
▁overly	-10.7448
▁journey	-10.7449
▁practically	-10.7449
▁explained	-10.746
▁wks	-10.7463
▁warm	-10.7464
▁nowhere	-10.7504
▁remind	-10.7508
side	-10.751
▁orsythia	-10.7525
▁egg	-10.7525
ia	-10.7527
▁sensitivity	-10.7527
▁sr	-10.7549
▁instant	-10.7562
▁jawline	-10.7567
▁belly	-10.757
▁depending	-10.7571
▁taper	-10.7586
▁mini	-10.7595
ck	-10.7597
best	-10.7602
▁1.8	-10.7606
▁hangover	-10.7608
ide	-10.763
▁benzo	-10.7633
▁dead	-10.7637
▁illness	-10.764
▁stars	-10.7646
▁degree	-10.7648
▁remained	-10.7648
▁##:##	-10.765
ac	-10.7662
!!!!!	-10.7672
▁reducing	-10.7679
▁grown	-10.7685
▁included	-10.7689
▁nov	-10.7696
▁(5	-10.7697
▁disappear	-10.7697
▁wonderfully	-10.7702
good	-10.7713
▁portion	-10.7727
▁vitamin	-10.7731
▁spasms	-10.7734
▁words	-10.7737
ma	-10.7753
▁herniated	-10.776
▁forgetting	-10.7763
▁floor	-10.7796
▁uti	-10.7796
▁psychotic	-10.7808
▁tremors	-10.7821
existent	-10.783
▁decent	-10.7832
▁primary	-10.7836
▁spoke	-10.7836
▁hospitalized	-10.7836
▁mix	-10.7855
▁dieting	-10.7867
▁toradol	-10.7875
term	-10.7877
▁blessing	-10.788
▁question	-10.7885
▁tested	-10.7886
▁heat	-10.7891
▁sadly	-10.7896
▁meant	-10.7903
▁embarrassing	-10.7915
▁nine	-10.7916
▁pap	-10.7925
used	-10.7928
pe	-10.7935
▁rested	-10.7936
ne	-10.7991
▁therapist	-10.7995
▁dried	-10.7996
▁6-8	-10.7996
▁restlessness	-10.7997
pro	-10.8002
▁overnight	-10.8005
▁kill	-10.8023
▁public	-10.8035
▁information	-10.8035
ance	-10.8035
▁soreness	-10.8041
▁learn	-10.8056
▁heal	-10.8059
▁cheap	-10.8073
▁typical	-10.8076
▁3-5	-10.8084
over	-10.8086
▁esteem	-10.809
▁improvements	-10.8099
▁therefore	-10.8116
▁downfall	-10.8117
▁fill	-10.8142
▁built	-10.8156
▁optimistic	-10.8156
▁pmdd	-10.8156
▁joints	-10.8169
▁##/7	-10.8179
▁units	-10.818
▁sept	-10.8188
▁human	-10.8199
▁showed	-10.8215
made	-10.8215
▁passing	-10.8226
▁bunch	-10.8238
▁continuously	-10.8241
▁terms	-10.8241
▁!!	-10.8243
▁eaten	-10.8252
▁ending	-10.8261
ie	-10.8266
▁roller	-10.828
▁lantus	-10.8281
▁informed	-10.8282
▁conjunction	-10.8321
▁constipated	-10.8321
▁thrilled	-10.8321
▁fentanyl	-10.8322
▁crossed	-10.8325
▁lift	-10.8341
▁altogether	-10.8362
▁januvia	-10.8362
▁ovule	-10.8362
▁thursday	-10.8362
▁approx	-10.8365
▁anybody	-10.8366
▁shift	-10.8368
▁beware	-10.8368
▁shocked	-10.8368
▁surprise	-10.8396
▁permanent	-10.8401
▁omg	-10.8402
taking	-10.8403
▁further	-10.8404
▁blisovi	-10.8404
▁intuniv	-10.8404
▁xulane	-10.8404
▁lazy	-10.8404
did	-10.8406
▁lamotrigine	-10.8408
▁across	-10.8413
▁fo	-10.8414
▁ineffective	-10.8432
▁comment	-10.8439
▁nerves	-10.8441
▁parenthood	-10.8446
▁swear	-10.8446
▁beforehand	-10.8448
line	-10.8453
▁front	-10.8453
▁jump	-10.8464
▁crash	-10.847
▁agitation	-10.8489
▁stage	-10.8503
j	-10.8527
▁crippling	-10.853
▁cardio	-10.8533
▁act	-10.8539
▁ms	-10.8541
ph	-10.8562
▁vistaril	-10.8574
▁nonstop	-10.8574
▁ahead	-10.8584
▁exercised	-10.8587
let	-10.8587
▁cured	-10.8597
▁needle	-10.8602
▁evra	-10.8615
▁bladder	-10.8617
▁ex	-10.8618
▁interested	-10.8635
can	-10.8641
nt	-10.8648
▁original	-10.8654
▁unhappy	-10.8658
▁placement	-10.8659
▁ha	-10.8676
▁packs	-10.8682
severe	-10.8698
▁needing	-10.8699
▁continuing	-10.87
▁shaky	-10.87
▁lady	-10.87
▁sorry	-10.8707
weight	-10.8724
▁hips	-10.8735
▁hypertension	-10.8743
▁unpredictable	-10.8743
ier	-10.8749
▁stabilizer	-10.8764
▁game	-10.8787
▁couch	-10.8787
▁menopause	-10.8791
ge	-10.8803
▁supplement	-10.8805
per	-10.8808
▁alarm	-10.8819
▁favorite	-10.883
▁discount	-10.883
▁combat	-10.8837
▁stabilized	-10.8837
▁useless	-10.8847
days	-10.885
light	-10.886
▁blurry	-10.8874
▁7-8	-10.8875
▁gyn	-10.8877
▁bath	-10.8878
▁tooth	-10.8916
▁drastic	-10.8917
▁reduction	-10.8918
▁behind	-10.8918
▁weakness	-10.8921
▁existent	-10.8923
week	-10.8938
▁amounts	-10.8938
time	-10.8955
▁occurred	-10.8962
▁forgetful	-10.8962
▁lorazepam	-10.8965
tro	-10.8965
today	-10.8966
▁urination	-10.9006
▁postpartum	-10.9006
▁diminished	-10.9009
▁wine	-10.901
▁grow	-10.9012
▁complications	-10.9012
de	-10.9013
▁relationships	-10.9023
▁slowed	-10.9042
▁removing	-10.905
▁trip	-10.9072
▁rod	-10.9075
▁warn	-10.9075
▁yo	-10.9077
▁entirely	-10.9082
▁enjoying	-10.9093
▁peace	-10.9095
▁flawless	-10.9095
▁girlfriend	-10.9095
▁bodies	-10.9095
▁ween	-10.9104
▁pen	-10.9127
▁correctly	-10.9143
▁thick	-10.9167
▁request	-10.9185
▁sucked	-10.9193
▁pray	-10.9207
▁##/##/##	-10.9209
▁gynecologist	-10.923
▁moments	-10.923
▁coaster	-10.9234
▁solodyn	-10.9236
▁retention	-10.9276
▁elevated	-10.9277
▁classes	-10.9278
back	-10.9278
▁lolo	-10.9282
▁purchased	-10.9282
▁suppressed	-10.9287
▁ankles	-10.9288
▁killer	-10.93
▁depends	-10.9304
▁position	-10.9306
▁dull	-10.9314
ous	-10.9328
▁vomited	-10.9338
▁parts	-10.9338
▁sizes	-10.9363
▁desperate	-10.9364
months	-10.9365
▁turning	-10.9365
▁necessary	-10.9369
▁convenience	-10.9369
spotting	-10.937
▁rated	-10.9386
take	-10.9396
ad	-10.9398
rin	-10.9413
▁stroke	-10.9413
▁neurontin	-10.9415
▁drunk	-10.9416
▁pores	-10.9421
ap	-10.9423
▁praying	-10.9425
▁killing	-10.9426
▁task	-10.9437
▁longest	-10.9442
▁picked	-10.9475
▁sounds	-10.949
▁improving	-10.9506
▁internet	-10.9506
▁milk	-10.9506
▁remain	-10.9509
▁lows	-10.9512
▁word	-10.9521
▁.5	-10.9531
ught	-10.9534
▁prescribing	-10.9553
▁bonus	-10.9555
ever	-10.9557
▁assume	-10.9567
▁spending	-10.9567
▁proper	-10.9597
high	-10.9599
▁caution	-10.96
▁fault	-10.96
▁google	-10.9602
▁dependent	-10.9604
▁dread	-10.9617
▁lived	-10.9624
▁cholesterol	-10.9647
▁harsh	-10.9647
▁content	-10.9649
▁6-7	-10.9651
▁heads	-10.9652
ca	-10.9676
▁correct	-10.9691
▁length	-10.9692
▁battling	-10.9694
▁shut	-10.9694
▁maintenance	-10.9698
▁tretinoin	-10.9698
▁yawning	-10.9699
▁teens	-10.97
they	-10.9705
po	-10.9716
▁acute	-10.9721
off	-10.9721
▁forms	-10.9721
▁joke	-10.9742
▁quitting	-10.9746
▁conscious	-10.9752
pa	-10.9756
▁gr	-10.9763
▁killers	-10.9767
▁users	-10.9772
▁discuss	-10.9778
▁dropping	-10.9791
▁conditions	-10.9791
▁instructions	-10.9802
bo	-10.9803
nal	-10.9823
messed	-10.9827
▁settle	-10.9828
▁clot	-10.9832
▁vertigo	-10.9839
▁tea	-10.985
▁user	-10.9882
▁derm	-10.9883
▁drawback	-10.9886
▁predictable	-10.9886
▁homework	-10.9887
▁di	-10.9888
▁shape	-10.9889
ped	-10.9892
▁seizures	-10.99
▁pants	-10.9901
tra	-10.9902
▁laugh	-10.9914
▁effectively	-10.9919
▁swing	-10.992
ld	-10.9921
▁road	-10.9935
▁godsend	-10.9935
▁bactrim	-10.9938
its	-10.9959
▁pounding	-10.997
▁iron	-10.9977
▁continuous	-10.998
▁losartan	-10.9985
▁wednesday	-10.9986
▁according	-10.9989
while	-11.0007
▁functioning	-11.0022
▁ma	-11.0027
▁ne	-11.0032
▁damn	-11.0033
▁unsure	-11.0033
▁fusion	-11.004
▁hr	-11.0051
▁ultram	-11.0054
▁bothered	-11.0058
rs	-11.0064
▁sp	-11.0065
▁particular	-11.0078
ating	-11.008
▁peroxide	-11.0082
▁unwanted	-11.0082
▁dexedrine	-11.0083
▁developing	-11.0097
iness	-11.0098
led	-11.0101
▁counting	-11.0108
:##	-11.0124
cy	-11.0128
▁miscarriage	-11.0131
▁tabs	-11.0147
▁weekly	-11.0161
▁kariva	-11.0181
because	-11.0187
▁fuller	-11.0214
▁drying	-11.0226
▁strict	-11.0227
▁positives	-11.0229
▁pcp	-11.0231
▁glass	-11.0232
▁temporary	-11.0232
▁majority	-11.0237
▁hey	-11.0244
▁healing	-11.0245
yes	-11.0246
▁book	-11.0252
▁motrin	-11.0281
▁frame	-11.0281
▁spironolactone	-11.0282
▁nonexistent	-11.0283
panic	-11.0289
▁needles	-11.0297
▁bra	-11.0297
▁fever	-11.0299
▁chemical	-11.0309
▁clinical	-11.031
▁nightly	-11.0318
▁(1	-11.0322
▁concerns	-11.0324
▁lumbar	-11.0332
▁deplin	-11.0332
▁cvs	-11.0332
▁gross	-11.0332
▁charm	-11.0332
▁skipped	-11.0332
▁diovan	-11.0335
▁po	-11.0337
ian	-11.034
▁leaves	-11.0358
sion	-11.0368
▁inflammation	-11.0383
▁copay	-11.0383
▁annoyed	-11.0386
▁younger	-11.0388
lexapro	-11.039
▁birthcontrol	-11.0393
▁walked	-11.0398
▁compare	-11.0424
▁contribute	-11.0434
▁pelvic	-11.0434
▁wrote	-11.0434
▁slipped	-11.0434
▁compulsive	-11.0435
▁venlafaxine	-11.0439
▁escitalopram	-11.044
▁pushed	-11.0451
▁stressing	-11.0457
▁r	-11.0461
▁hat	-11.0461
▁faint	-11.0464
▁response	-11.0467
▁washing	-11.0482
▁irritating	-11.0485
▁minimum	-11.0485
▁zarah	-11.0485
aught	-11.049
▁screaming	-11.0491
still	-11.0494
▁2-4	-11.0494
▁eliminated	-11.0496
period	-11.0527
go	-11.0533
▁sight	-11.0537
▁cervical	-11.0538
▁recovery	-11.0538
▁focusing	-11.0538
▁cetaphil	-11.0539
▁catch	-11.0544
▁amazingly	-11.0548
▁doxy	-11.0588
▁cleanser	-11.0591
▁particularly	-11.0595
▁rapidly	-11.0597
went	-11.0598
▁settled	-11.0599
ot	-11.061
long	-11.0612
6	-11.062
▁tab	-11.0622
▁manufacturer	-11.0624
▁noon	-11.0642
due	-11.0658
▁til	-11.0661
▁hearing	-11.0665
▁snacks	-11.0678
▁progesterone	-11.0693
▁imbalance	-11.0693
▁horrid	-11.0693
▁onset	-11.0694
update	-11.0702
▁chills	-11.0717
▁fixed	-11.0723
▁fluid	-11.0729
by	-11.0743
▁happiness	-11.0745
▁drove	-11.0745
▁mildly	-11.0763
▁suck	-11.0772
▁smoke	-11.0781
▁regard	-11.0781
▁assum	-11.0783
▁exhaustion	-11.0798
▁poly	-11.0802
▁refused	-11.0806
7	-11.0825
▁factor	-11.0829
▁recall	-11.0842
▁power	-11.085
▁individual	-11.0851
▁maximum	-11.0851
▁million	-11.0851
▁window	-11.0851
▁hole	-11.0854
▁appt	-11.0857
▁news	-11.0858
▁occasions	-11.0862
az	-11.0881
▁phase	-11.0889
▁points	-11.0889
▁seizure	-11.0893
▁irrational	-11.0901
▁amitriptyline	-11.0905
▁increases	-11.0909
▁clock	-11.0916
▁tapering	-11.092
hey	-11.0922
▁breaks	-11.0924
▁ear	-11.093
▁wall	-11.0932
va	-11.0938
▁effected	-11.0939
▁narcotics	-11.0951
what	-11.0954
▁vacation	-11.0959
▁approved	-11.0961
▁fiance	-11.0971
▁knows	-11.0984
▁promise	-11.1003
▁fade	-11.1003
▁chocolate	-11.1013
▁neuropathy	-11.1014
▁dysfunction	-11.1015
▁standing	-11.1016
▁prescriptions	-11.1018
▁importantly	-11.1025
didn	-11.1027
▁costs	-11.1029
oh	-11.1047
▁ankle	-11.1056
lu	-11.1065
▁torture	-11.1067
▁resort	-11.1067
▁cycling	-11.1067
▁tension	-11.1068
▁toilet	-11.107
▁jitters	-11.107
▁8-##	-11.108
▁ringing	-11.1092
▁3.5	-11.1106
▁events	-11.1109
ng	-11.111
▁stretch	-11.1111
▁cheek	-11.1113
▁violent	-11.1118
▁runs	-11.1137
▁calms	-11.1141
▁emotion	-11.1161
▁speed	-11.1177
▁overwhelmed	-11.1178
▁exception	-11.1188
▁whiteheads	-11.1188
▁capsule	-11.1218
▁breakdown	-11.122
▁spread	-11.1221
night	-11.1222
low	-11.1228
▁snap	-11.1232
▁breeze	-11.1232
▁confusion	-11.1232
iv	-11.1234
▁tall	-11.1236
▁outlook	-11.1238
▁anytime	-11.1251
▁ca	-11.1272
▁bout	-11.1282
▁consult	-11.1286
▁eliminate	-11.1287
▁duration	-11.1287
▁gentle	-11.1287
▁urine	-11.1288
▁pure	-11.1288
▁immensely	-11.1289
pain	-11.1292
cystic	-11.13
maybe	-11.13
▁respond	-11.1319
▁lessen	-11.1323
▁buying	-11.1331
▁!!!	-11.1334
▁tummy	-11.1343
▁tube	-11.1358
▁described	-11.136
▁addict	-11.1377
▁fruit	-11.1387
ke	-11.1387
▁enjoyed	-11.1392
red	-11.1393
##.##	-11.1397
▁vary	-11.14
▁dollars	-11.1409
ga	-11.1447
▁loosing	-11.1456
▁researching	-11.1459
▁hydro	-11.1462
▁professional	-11.1465
▁piece	-11.15
▁joy	-11.1513
▁scalp	-11.1513
▁itchiness	-11.1514
▁sluggish	-11.1514
▁hassle	-11.1514
▁doubled	-11.1533
▁v	-11.1539
▁occasion	-11.1553
▁provera	-11.1555
use	-11.1563
▁final	-11.1566
▁example	-11.157
▁quiet	-11.157
▁reliable	-11.157
▁ultimately	-11.157
qu	-11.1573
nothing	-11.1584
▁healed	-11.1584
nut	-11.1597
▁inches	-11.1598
some	-11.1601
▁benzodiazepines	-11.1612
quo	-11.1613
▁applicator	-11.1627
▁ovaries	-11.1627
▁aubra	-11.1627
▁skinny	-11.1627
▁persistent	-11.1628
▁assured	-11.163
gyn	-11.1641
bad	-11.165
▁gi	-11.1654
▁speaking	-11.1654
▁cloud	-11.1683
▁afterward	-11.1687
▁lethargy	-11.1688
▁promised	-11.1696
pill	-11.1697
▁urinate	-11.1701
tried	-11.1715
▁supplements	-11.1719
way	-11.1728
▁resulted	-11.1732
▁cautious	-11.1743
▁divorce	-11.1743
▁ziana	-11.1743
▁aleve	-11.1746
down	-11.1757
please	-11.1758
▁fewer	-11.1765
old	-11.1784
▁recommendation	-11.1785
▁stabilize	-11.1787
▁study	-11.1791
▁receive	-11.1792
ring	-11.1801
▁forming	-11.1801
▁obese	-11.1805
cr	-11.1818
▁phen	-11.183
▁action	-11.1855
▁chateal	-11.1861
▁fda	-11.1861
▁trintellix	-11.1861
▁uncontrollably	-11.1861
lic	-11.1861
der	-11.1864
▁formula	-11.1884
▁monitor	-11.1899
▁rock	-11.1907
▁calming	-11.1909
▁benzoyl	-11.192
▁##)	-11.1921
▁reliever	-11.1922
▁o	-11.1927
nausea	-11.1936
▁vi	-11.1941
▁useful	-11.1956
▁color	-11.1959
▁allergy	-11.1979
▁deciding	-11.1979
▁ugly	-11.1979
▁chapped	-11.1979
▁sorts	-11.1982
▁dad	-11.1984
▁worsening	-11.1994
provera	-11.1995
▁peel	-11.2004
▁snacking	-11.2005
▁lip	-11.2007
bi	-11.201
▁star	-11.2022
▁rush	-11.2027
▁accept	-11.2029
▁completed	-11.2036
▁5-##	-11.2038
▁atenolol	-11.2039
▁embarrassed	-11.2039
▁mirror	-11.2039
▁blemishes	-11.204
▁father	-11.204
▁lying	-11.2041
▁prolonged	-11.2041
▁demerol	-11.2041
▁discouraged	-11.2041
▁j	-11.2042
▁5-7	-11.2046
dding	-11.2046
tion	-11.2056
▁milligrams	-11.2056
▁returning	-11.2071
▁leveled	-11.2084
▁support	-11.2099
▁smile	-11.2099
▁progressive	-11.21
▁clonidine	-11.2102
ft	-11.2106
▁tapered	-11.2115
cl	-11.2123
pi	-11.2129
▁liners	-11.2131
▁replace	-11.215
▁tremendous	-11.2157
▁mononessa	-11.216
▁watchers	-11.2161
▁oct	-11.2163
▁twitching	-11.2165
lt	-11.2175
▁bruised	-11.2179
▁ph	-11.2187
▁oxy	-11.2221
▁heaviest	-11.2221
▁alright	-11.2221
▁silenor	-11.2224
▁involved	-11.2225
▁veggies	-11.2226
▁span	-11.2233
▁hoped	-11.2237
▁becomes	-11.2262
▁movement	-11.2277
▁plate	-11.2284
▁tv	-11.2284
▁cryselle	-11.2284
▁depressing	-11.2285
▁suppress	-11.2288
▁growth	-11.2289
▁drugged	-11.2292
ner	-11.2293
absolutely	-11.2301
▁rely	-11.2304
▁##/##/####	-11.2333
▁soft	-11.2336
▁stool	-11.2337
▁jolessa	-11.2344
▁labor	-11.2345
▁realizing	-11.2345
▁trileptal	-11.2346
▁celebrex	-11.2346
▁temazepam	-11.2348
▁beats	-11.2349
▁wedding	-11.235
▁meaning	-11.2352
▁powerful	-11.2356
ps	-11.2385
▁swell	-11.2386
▁(4	-11.2389
▁encourage	-11.2396
▁admitted	-11.2403
▁fluoxetine	-11.241
▁starter	-11.2418
▁sometime	-11.242
almost	-11.2426
▁reported	-11.2429
▁disorders	-11.2436
con	-11.2438
▁drinks	-11.2455
▁stones	-11.2458
▁conversation	-11.2462
▁reluctant	-11.2465
▁agony	-11.2469
▁ovary	-11.2469
▁begun	-11.2469
▁resistant	-11.2469
▁bothersome	-11.2469
▁buspirone	-11.2472
▁implantation	-11.2479
▁li	-11.2483
from	-11.2488
▁ra	-11.2492
also	-11.2506
▁interact	-11.2508
fe	-11.2511
▁plateau	-11.2522
▁teacher	-11.2526
om	-11.2529
▁avail	-11.2531
▁puberty	-11.2532
▁gut	-11.2532
▁failure	-11.2532
▁thinning	-11.2532
▁rashes	-11.2536
▁somehow	-11.2537
▁zolpidem	-11.2537
▁lightened	-11.2545
mcg	-11.2551
▁released	-11.2569
▁k	-11.2585
▁adjustment	-11.259
▁noticeably	-11.2596
▁movements	-11.2603
referred	-11.2608
▁maintained	-11.2617
sleep	-11.263
▁interesting	-11.2632
!).	-11.2642
▁decisions	-11.2645
▁temper	-11.265
▁poison	-11.265
▁stimulants	-11.2651
▁sc	-11.2652
▁grogginess	-11.2659
▁unmotivated	-11.2659
life	-11.266
▁inactive	-11.2698
▁clears	-11.2707
▁posts	-11.2711
▁reflux	-11.2723
▁pump	-11.2723
▁bread	-11.2724
▁intended	-11.2728
▁faded	-11.2734
##.	-11.2749
▁holding	-11.2757
▁thirst	-11.2785
▁approach	-11.2787
▁yogurt	-11.2787
▁neurologist	-11.2787
▁trade	-11.2788
▁reality	-11.2791
▁bacterial	-11.2793
▁:	-11.2794
▁lifting	-11.2805
sp	-11.2816
▁lighten	-11.2823
▁appear	-11.2827
▁sub	-11.2849
▁aids	-11.2851
▁creep	-11.2852
▁error	-11.2852
▁info	-11.2852
▁loud	-11.2852
▁regardless	-11.2853
gr	-11.2862
ize	-11.2866
▁vag	-11.2874
▁shock	-11.29
▁worsen	-11.2902
▁achieve	-11.2908
▁alleviate	-11.291
▁shakes	-11.2913
▁decreasing	-11.2918
▁oppose	-11.2918
▁haha	-11.2918
▁bay	-11.2919
▁voltaren	-11.292
▁green	-11.2927
▁yay	-11.2938
ized	-11.2949
omg	-11.2955
za	-11.2969
▁portia	-11.2983
▁shame	-11.2984
▁proactive	-11.2986
▁borderline	-11.2986
▁quetiapine	-11.2989
▁bmi	-11.2991
generic	-11.3006
especially	-11.3007
every	-11.3009
▁mar	-11.3035
▁burst	-11.3036
▁mi	-11.3041
▁ho	-11.3044
▁twenty	-11.305
▁inflamed	-11.305
bs	-11.305
os	-11.305
▁amlodipine	-11.3054
▁downs	-11.3066
▁risks	-11.3077
▁testing	-11.3077
▁sleepless	-11.3092
▁fail	-11.3096
dy	-11.3106
▁contain	-11.3106
▁pa	-11.3115
▁discontinuing	-11.3116
▁energized	-11.3117
▁raw	-11.3117
▁provider	-11.3124
yl	-11.3129
▁seek	-11.313
▁outbursts	-11.3131
▁capsules	-11.3133
▁tense	-11.3135
▁pushing	-11.3142
▁ball	-11.3151
▁cleaning	-11.3154
▁swallow	-11.3162
▁##-###	-11.3169
▁obvious	-11.318
▁nursing	-11.3183
▁severity	-11.3183
▁sleeplessness	-11.3184
▁searching	-11.3191
last	-11.3192
▁soap	-11.3192
▁beta	-11.3194
oid	-11.3206
lost	-11.3216
mp	-11.3226
▁sh	-11.3233
▁eater	-11.3245
▁sronyx	-11.3251
▁resolved	-11.3256
▁medicated	-11.3263
▁highs	-11.3273
▁cal	-11.3273
xanax	-11.3275
terrible	-11.3275
▁&####;##	-11.3282
▁bones	-11.3305
▁na	-11.3307
▁harm	-11.3314
▁smart	-11.3317
▁bulging	-11.3319
▁metoprolol	-11.3319
▁stabbing	-11.3319
▁azor	-11.332
more	-11.3322
▁generess	-11.3322
▁th	-11.3323
▁thinks	-11.3336
▁fed	-11.3343
▁ingredients	-11.3355
ious	-11.3358
ose	-11.3376
▁roll	-11.3378
▁kicks	-11.3381
▁researched	-11.3384
▁ugh	-11.339
▁thinner	-11.339
▁mis	-11.3396
▁salt	-11.3398
▁wk	-11.3402
▁thumbs	-11.3403
▁shorten	-11.3411
▁instructed	-11.3457
▁package	-11.3462
▁dog	-11.3524
▁sinus	-11.3525
▁ella	-11.3525
▁starving	-11.3526
▁medium	-11.3526
▁granted	-11.3529
▁diazepam	-11.3531
▁sky	-11.3531
▁saving	-11.3533
there	-11.3542
▁peak	-11.3548
▁itches	-11.3553
weeks	-11.3591
▁endocrinologist	-11.3596
▁winter	-11.3596
▁specific	-11.3597
▁weekends	-11.3599
▁codeine	-11.3601
▁covering	-11.3603
▁ends	-11.3612
▁jumped	-11.3612
wow	-11.3622
▁playing	-11.3623
▁dosages	-11.3642
▁sedating	-11.3666
▁considerably	-11.3667
▁loopy	-11.3667
▁fresh	-11.3673
▁dosing	-11.3677
having	-11.3694
within	-11.3697
/##/####	-11.3698
▁sa	-11.3711
▁bcp	-11.3718
▁protect	-11.3727
▁transition	-11.3728
▁race	-11.3729
ical	-11.373
▁remedies	-11.3737
▁steadily	-11.3737
▁welbutrin	-11.3737
▁moisturiser	-11.3739
▁string	-11.374
▁unbelievable	-11.3741
ory	-11.3744
▁va	-11.3747
▁pricey	-11.375
▁learning	-11.3757
▁ideal	-11.377
other	-11.3776
▁itched	-11.3793
▁win	-11.3806
▁impulsive	-11.3808
▁hct	-11.3808
▁chicken	-11.3809
▁elavil	-11.3809
▁garbage	-11.3809
▁shrink	-11.3809
▁clindamycin	-11.3811
▁offered	-11.3817
▁functional	-11.3844
▁....	-11.3849
▁thighs	-11.3858
▁tra	-11.386
▁fa	-11.3864
▁docs	-11.3873
▁exam	-11.3876
▁flaky	-11.388
▁serotonin	-11.388
▁cranky	-11.3881
▁clockwork	-11.3881
▁vanished	-11.3883
▁recovering	-11.3891
▁drops	-11.3909
hed	-11.3913
then	-11.3918
▁en	-11.3935
▁comfort	-11.3949
▁whil	-11.3949
▁slip	-11.3953
▁cognitive	-11.3953
▁heartbeat	-11.3953
▁underwear	-11.3953
▁risperdal	-11.3955
▁cocktail	-11.3956
▁mri	-11.3965
:)	-11.3967
-##-##	-11.397
gg	-11.3974
▁changer	-11.398
▁moderately	-11.3987
▁recognize	-11.3991
▁vitamins	-11.4009
▁se	-11.4017
▁companies	-11.4026
▁waist	-11.4026
▁cardiologist	-11.4026
▁zit	-11.4029
▁prevention	-11.4029
▁page	-11.4029
▁nervousness	-11.4037
▁walls	-11.4047
dry	-11.4047
sometimes	-11.4056
dr	-11.4057
▁tool	-11.407
▁fits	-11.407
▁mos	-11.4096
▁accompanie	-11.4099
▁anemic	-11.4099
▁stenosis	-11.4099
▁wisdom	-11.4099
▁fortunately	-11.4101
▁liquid	-11.4102
▁norvasc	-11.4102
▁toward	-11.4103
▁doxepin	-11.4105
▁stinging	-11.4108
▁provided	-11.4109
▁hi	-11.4117
▁bear	-11.413
cal	-11.413
▁gastri	-11.4136
▁posting	-11.4142
▁urina	-11.4154
▁sedation	-11.4174
▁forgotten	-11.4174
▁specifically	-11.4174
od	-11.4179
ible	-11.4195
ned	-11.4206
▁z	-11.4208
▁ibs	-11.4208
▁showing	-11.4209
pay	-11.4212
pl	-11.422
▁purchase	-11.4238
▁daytrana	-11.4248
▁dependency	-11.4248
▁aspirin	-11.4248
▁complexion	-11.4248
▁determined	-11.4254
▁successfully	-11.4255
▁5/###	-11.4256
▁triggered	-11.4257
▁quicker	-11.4263
▁cum	-11.4265
insertion	-11.428
year	-11.4288
hr	-11.4298
▁meat	-11.4306
▁inject	-11.4308
▁wet	-11.4321
▁split	-11.4323
▁excess	-11.4323
▁strain	-11.4323
▁surgeon	-11.4324
▁air	-11.4325
▁halfway	-11.4329
▁pattern	-11.433
▁opiate	-11.433
▁brings	-11.4332
▁contraceptives	-11.4346
▁waves	-11.4351
thank	-11.4362
▁bag	-11.4364
▁kills	-11.4378
.3	-11.438
q	-11.4381
▁beneficial	-11.4399
▁benzaclin	-11.4399
▁greasy	-11.4399
▁btw	-11.4399
▁disgusting	-11.44
▁directly	-11.4401
les	-11.4401
▁coverage	-11.4401
▁clenching	-11.4402
▁alprazolam	-11.4409
......	-11.4414
mood	-11.4429
holy	-11.443
acne	-11.4432
right	-11.4452
▁visits	-11.4453
▁wipes	-11.4457
▁guessing	-11.4458
▁endo	-11.446
plan	-11.4465
▁teenage	-11.4469
ag	-11.4471
com	-11.4473
▁possibility	-11.4475
▁fading	-11.4475
▁sciatica	-11.4477
▁claravis	-11.4477
▁insisted	-11.4479
▁restoril	-11.448
▁aspect	-11.4483
▁finger	-11.4483
bu	-11.4485
▁polar	-11.4489
most	-11.4497
▁contractions	-11.4504
excellent	-11.4509
except	-11.4509
▁tastes	-11.4509
▁downsides	-11.4515
▁sooo	-11.4516
▁chances	-11.4529
▁bloat	-11.4531
▁practice	-11.4535
ran	-11.4539
▁repeat	-11.4545
▁percent	-11.4552
▁written	-11.4552
▁unhealthy	-11.4552
▁motion	-11.4553
▁urgent	-11.4553
▁dehydrated	-11.4553
▁sedated	-11.4554
▁usage	-11.4555
▁table	-11.4556
▁ovulated	-11.4561
▁cat	-11.4562
▁induced	-11.4563
▁ur	-11.4587
▁directions	-11.4588
cing	-11.459
ept	-11.4599
▁eased	-11.4605
▁perform	-11.4612
-1	-11.4626
▁doryx	-11.463
▁actos	-11.463
▁cipralex	-11.4633
▁training	-11.464
▁laughing	-11.4648
▁hardest	-11.465
our	-11.4653
▁le	-11.4668
▁recover	-11.4685
▁oc	-11.469
ions	-11.4696
▁provide	-11.4699
▁opiates	-11.4701
▁savings	-11.4707
▁extent	-11.4708
▁fabulous	-11.4708
▁intolerable	-11.4708
▁nature	-11.4708
▁5&	-11.471
▁hysingla	-11.4711
▁shooting	-11.4712
▁ga	-11.4716
▁somewhere	-11.4716
loss	-11.4719
▁snri	-11.4723
▁.6	-11.4726
has	-11.473
▁land	-11.4735
acute	-11.4743
anti	-11.4743
▁coughing	-11.4755
▁fianc	-11.4769
ba	-11.4778
-###	-11.478
▁smear	-11.4787
▁psychologist	-11.4787
▁popping	-11.4787
▁tegretol	-11.4789
▁tear	-11.4789
▁dilated	-11.4793
▁slightest	-11.4802
▁fruits	-11.4805
amazing	-11.4822
itis	-11.4827
▁opened	-11.4829
▁travel	-11.4855
dis	-11.4861
▁menstruation	-11.4866
▁immune	-11.4869
gen	-11.4877
▁wo	-11.4888
▁lil	-11.4891
▁###.5	-11.4895
doctor	-11.4903
ley	-11.491
▁1/4	-11.4912
rushed	-11.4913
ug	-11.4934
▁aura	-11.494
▁cases	-11.4946
▁christmas	-11.4946
▁indigestion	-11.4946
▁reccomend	-11.4946
▁terrifying	-11.4946
▁surface	-11.4946
▁aug	-11.4969
▁surely	-11.4969
▁curbed	-11.4974
▁numbed	-11.5002
ene	-11.5025
section	-11.5027
▁acanya	-11.5027
▁allergies	-11.5027
▁brother	-11.5027
▁intimate	-11.5027
▁performance	-11.5027
▁genetic	-11.5027
▁trigger	-11.5028
▁parnate	-11.503
▁hydroxyzine	-11.5032
▁sweaty	-11.5035
▁nipples	-11.5045
ane	-11.5051
▁depressants	-11.5053
years	-11.5058
▁career	-11.5063
effect	-11.507
▁pal	-11.5077
▁upside	-11.5079
▁questions	-11.5087
▁def	-11.5089
▁train	-11.5094
▁space	-11.5096
▁mellow	-11.5106
▁comparison	-11.5108
▁unstable	-11.5108
▁monster	-11.5108
▁sanity	-11.5108
▁business	-11.5108
▁verge	-11.5109
▁accidentally	-11.5111
▁###.4	-11.5111
▁cake	-11.5112
▁zone	-11.5134
▁tip	-11.5136
▁holidays	-11.5144
overall	-11.5147
though	-11.515
▁lumps	-11.5156
▁watched	-11.5157
really	-11.5163
▁sl	-11.518
▁su	-11.518
▁dia	-11.5188
▁variety	-11.519
▁zovia	-11.519
▁tightness	-11.5192
▁childhood	-11.5193
▁panicking	-11.5193
▁refuse	-11.5194
▁destroyed	-11.5196
▁height	-11.5197
pre	-11.52
ea	-11.5205
work	-11.522
▁believed	-11.5221
helped	-11.5234
▁###/###.	-11.5241
▁nope	-11.5267
▁unexpected	-11.5269
ure	-11.5272
▁contin	-11.5272
▁abortion	-11.5273
▁obesity	-11.5273
▁tenuate	-11.5273
▁tunnel	-11.5273
▁juice	-11.5273
▁tissue	-11.5273
▁desk	-11.5273
▁label	-11.5274
▁8:##	-11.5281
▁7:##	-11.5281
▁paper	-11.5286
▁heck	-11.529
▁outgoing	-11.529
ber	-11.5291
▁poop	-11.5291
▁vs	-11.5291
control	-11.5296
▁bv	-11.5302
▁sports	-11.5306
▁evenings	-11.5311
▁touched	-11.5314
she	-11.5315
▁lungs	-11.5322
ten	-11.5325
amine	-11.5352
▁unfortunate	-11.5352
▁lidocaine	-11.5356
▁faith	-11.5356
▁digestive	-11.5356
▁midnight	-11.5357
▁surprisingly	-11.536
▁overcome	-11.536
ence	-11.5361
▁plain	-11.5363
▁meet	-11.5366
▁injected	-11.5367
who	-11.5368
▁salad	-11.537
▁factors	-11.5382
▁tract	-11.5382
▁subsides	-11.5387
ue	-11.5396
▁layer	-11.54
ction	-11.5404
▁ongoing	-11.5416
▁generics	-11.5419
▁beating	-11.5429
▁patterns	-11.5433
▁center	-11.544
▁cheese	-11.544
▁clarity	-11.544
▁intensity	-11.544
▁jardiance	-11.544
▁pharmaceutical	-11.544
▁regulating	-11.544
▁freshman	-11.544
▁psychosis	-11.544
▁shows	-11.5441
▁osteoarthritis	-11.5442
▁affordable	-11.5442
▁panicked	-11.5443
▁idk	-11.5443
▁brilliant	-11.5445
▁raise	-11.5445
▁wiped	-11.5449
▁titrated	-11.5451
▁bite	-11.5452
▁fi	-11.5453
▁knocks	-11.5454
sure	-11.5474
cymbalta	-11.5481
▁requires	-11.5506
▁scratch	-11.5514
▁measure	-11.5515
ble	-11.5521
chlorothiazide	-11.5525
▁challenge	-11.5525
▁naproxen	-11.5525
▁subtle	-11.5525
▁uk	-11.5525
▁skipping	-11.5526
▁fitted	-11.5526
▁euphoric	-11.5528
▁wound	-11.5533
ster	-11.5533
▁special	-11.5542
ise	-11.5544
▁inter	-11.5547
ight	-11.5548
ky	-11.5567
▁restful	-11.559
▁torn	-11.5603
.8	-11.5607
▁stiff	-11.5609
▁glipizide	-11.561
▁managing	-11.561
▁fiber	-11.561
▁psychiatric	-11.561
▁flight	-11.5611
▁nuts	-11.5611
▁fatty	-11.5612
▁frustration	-11.5612
▁hitting	-11.5616
▁checking	-11.5624
▁maintaining	-11.5643
▁rec	-11.5668
oz	-11.5682
▁brutal	-11.5696
▁treadmill	-11.5696
▁chemistry	-11.5697
▁root	-11.5697
▁ideation	-11.5698
▁smoother	-11.5704
▁greatest	-11.5704
▁shedding	-11.5705
▁solved	-11.5709
▁swelled	-11.571
▁thrown	-11.5719
▁everytime	-11.5721
/##/##	-11.5721
ged	-11.5725
▁##.##	-11.5728
!!!!!!	-11.5735
▁appreciate	-11.5774
▁block	-11.5778
▁tingly	-11.5784
▁fitness	-11.5793
end	-11.5793
▁dumb	-11.5794
▁forth	-11.5795
▁gl	-11.5796
▁decade	-11.5802
ning	-11.5811
▁ta	-11.5814
▁realise	-11.5814
▁door	-11.5822
▁reacted	-11.5822
▁(6	-11.5823
▁visited	-11.583
▁voices	-11.5833
act	-11.5837
▁antipsychotics	-11.5844
▁##).	-11.5852
▁withdraw	-11.5855
▁###.6	-11.5859
helps	-11.5861
▁interfere	-11.5861
▁dairy	-11.5871
▁senior	-11.5871
▁taytulla	-11.5871
▁vraylar	-11.5871
▁curious	-11.5871
▁achy	-11.5871
▁mask	-11.5871
▁packet	-11.5872
▁hide	-11.5872
▁record	-11.5874
▁washes	-11.5881
▁miracles	-11.5881
▁fainted	-11.5888
▁tubes	-11.5892
ened	-11.5894
▁tad	-11.5903
▁op	-11.5929
pros	-11.5935
▁aching	-11.5939
▁cross	-11.5955
▁brief	-11.5956
▁mono	-11.5958
▁agoraphobia	-11.596
▁stubborn	-11.596
▁studies	-11.596
▁anemia	-11.596
▁odor	-11.596
▁wild	-11.596
▁assist	-11.596
▁butrans	-11.596
▁match	-11.5961
▁dentist	-11.5963
▁fears	-11.5967
▁outcome	-11.5968
▁require	-11.5971
▁slower	-11.5972
▁delayed	-11.5972
▁###.8	-11.5978
▁worthless	-11.5979
▁gum	-11.598
▁awoke	-11.5983
▁terrors	-11.5984
▁former	-11.5984
▁men	-11.5987
▁wind	-11.5988
▁plans	-11.5989
▁negatively	-11.5998
▁uter	-11.5998
▁ab	-11.6001
▁adjusts	-11.6013
gn	-11.6036
▁absorb	-11.6039
▁steps	-11.604
▁moisturize	-11.6043
▁sedative	-11.6049
▁alternate	-11.6049
▁spring	-11.6049
▁grumpy	-11.6049
▁fish	-11.605
▁heightened	-11.605
gged	-11.6052
▁nardil	-11.6053
▁closed	-11.6055
▁spiral	-11.6058
▁apple	-11.606
too	-11.6065
▁pink	-11.6066
ile	-11.607
▁counteract	-11.6092
two	-11.6095
diagnosed	-11.6095
▁drs	-11.6122
▁worker	-11.6124
▁ovulate	-11.6129
▁irritate	-11.6129
▁separate	-11.6135
▁multi	-11.6139
▁loryna	-11.6139
▁necessarily	-11.6139
▁sunburn	-11.6139
▁si	-11.614
▁distracted	-11.6143
▁created	-11.6146
▁ridiculously	-11.6153
▁pea	-11.6157
▁foundation	-11.6168
moderate	-11.6186
probably	-11.6186
mostly	-11.619
▁offer	-11.6211
▁bypass	-11.623
▁vengeance	-11.623
▁whack	-11.623
▁fuzzy	-11.6231
▁ceased	-11.6233
▁slim	-11.6238
▁wipe	-11.6243
▁ro	-11.6244
opted	-11.6251
▁complained	-11.6267
▁pit	-11.6272
sis	-11.6276
honestly	-11.6278
hormonal	-11.6278
mild	-11.6279
▁closer	-11.6279
▁pp	-11.6281
tal	-11.6286
▁du	-11.6289
▁search	-11.6305
▁understanding	-11.6311
▁internal	-11.6318
▁euphoria	-11.6322
▁fifteen	-11.6322
▁hubby	-11.6322
▁hysterectomy	-11.6322
▁sharing	-11.6322
▁shopping	-11.6322
▁lightheadedness	-11.6326
▁psycho	-11.6356
/###	-11.6387
▁kg	-11.6389
▁kidneys	-11.6391
ably	-11.6403
▁delay	-11.6404
▁definite	-11.6411
▁camrese	-11.6414
▁debating	-11.6414
▁petite	-11.6414
▁target	-11.6414
▁group	-11.6415
▁graduated	-11.6419
▁arrived	-11.642
▁drained	-11.6421
▁states	-11.6422
▁1-3	-11.6423
▁fallen	-11.6423
ari	-11.643
put	-11.6437
▁tops	-11.6437
heavy	-11.6464
###.##	-11.6467
▁mile	-11.6469
▁daytime	-11.6479
uc	-11.6494
gt	-11.6495
▁efficacy	-11.6508
▁calcium	-11.6508
▁quarter	-11.6508
▁address	-11.6509
▁farxiga	-11.6509
llowing	-11.651
▁coil	-11.651
get	-11.6513
▁hydrated	-11.6514
▁confirmed	-11.6516
-3	-11.6521
▁6:##	-11.6525
▁nobody	-11.653
▁benzodiazepine	-11.6538
prescribed	-11.6558
▁opening	-11.6563
▁express	-11.6579
▁1-##	-11.66
▁intrusive	-11.6602
▁hypomania	-11.6602
▁mylan	-11.6602
▁lean	-11.6603
▁dislike	-11.6604
▁updated	-11.6607
▁spiro	-11.6639
▁ordered	-11.6644
▁##/7.	-11.6665
▁soften	-11.6675
▁scream	-11.6676
▁1,###	-11.6676
▁accomplish	-11.6687
usually	-11.6687
▁tone	-11.669
▁attempts	-11.6694
▁cotton	-11.6697
▁external	-11.6697
▁pizza	-11.6697
▁proud	-11.6697
▁substance	-11.6697
▁raging	-11.6697
▁eczema	-11.67
▁##,####	-11.6706
osis	-11.6718
▁partum	-11.672
may	-11.673
feel	-11.6739
▁cleaned	-11.6746
▁sting	-11.6748
▁gradual	-11.679
▁favor	-11.6793
▁dehydration	-11.6793
▁devil	-11.6793
▁adapt	-11.6793
▁enemy	-11.6793
▁resistance	-11.6794
▁restroom	-11.6794
▁hopelessness	-11.6796
▁remaining	-11.6816
▁load	-11.6833
seroquel	-11.6847
▁naps	-11.6848
▁sized	-11.6874
▁suspect	-11.6881
▁athlete	-11.6891
▁crappy	-11.6891
▁janumet	-11.6891
▁primarily	-11.6891
▁responsible	-11.6891
▁style	-11.6891
▁vegetables	-11.6891
▁clue	-11.6891
▁ensure	-11.6891
▁indeed	-11.6891
▁region	-11.6893
▁burping	-11.6893
▁para	-11.6897
nessa	-11.692
▁deeply	-11.6925
▁picking	-11.6928
ative	-11.6928
fa	-11.6939
▁ch	-11.6941
awful	-11.6945
▁ultra	-11.6945
mia	-11.6951
▁brush	-11.6954
▁accidents	-11.6964
▁mode	-11.6969
▁5&####;5	-11.6982
▁beer	-11.6985
▁bless	-11.6987
▁serve	-11.6987
ear	-11.6988
▁ants	-11.6988
▁misery	-11.6989
▁essentially	-11.699
▁adapalene	-11.6991
▁blah	-11.6993
▁nuvigil	-11.6994
▁ps	-11.7005
▁addicting	-11.7008
▁seeking	-11.7011
▁5:##	-11.7012
king	-11.7017
ace	-11.7022
▁diets	-11.703
▁mu	-11.703
▁law	-11.7035
▁kicking	-11.7067
▁density	-11.7088
▁diuretic	-11.7088
▁fifth	-11.7088
▁relieving	-11.7088
▁rheumatoid	-11.7088
▁sodium	-11.7088
▁yoga	-11.7088
▁therapeutic	-11.7091
aze	-11.7095
▁nu	-11.711
▁reviewers	-11.7116
▁chi	-11.7119
▁thigh	-11.7119
late	-11.7129
##/	-11.7137
being	-11.7171
kgs	-11.7171
▁curl	-11.7173
▁computer	-11.7188
▁contemplat	-11.7188
▁jolivette	-11.7188
▁junior	-11.7188
▁among	-11.7188
▁distress	-11.7188
▁liking	-11.7188
▁rebound	-11.7188
▁lining	-11.7188
▁committed	-11.7188
▁lives	-11.7192
▁workouts	-11.7197
▁8/##	-11.7198
▁sw	-11.7202
▁dries	-11.7202
▁commented	-11.7212
▁antipsychotic	-11.722
▁blocker	-11.723
-5	-11.7232
▁band	-11.7241
▁trips	-11.7246
du	-11.7253
▁loads	-11.726
ey	-11.7268
▁birthday	-11.7276
▁5&####;2	-11.7281
▁relate	-11.7282
▁apparent	-11.7285
af	-11.7286
▁evil	-11.7289
▁receiving	-11.7289
▁smiling	-11.7289
▁gallbladder	-11.7289
cuz	-11.7289
▁trash	-11.7289
▁heaven	-11.729
▁5&####;1	-11.7292
▁appears	-11.7295
▁tempered	-11.7308
▁ect	-11.7318
▁wrist	-11.7321
▁attend	-11.7332
ail	-11.7335
mins	-11.7341
something	-11.7347
brain	-11.7348
▁####)	-11.7361
nic	-11.7375
▁5&####;4	-11.7383
▁te	-11.7388
▁awkward	-11.7391
▁miconazole	-11.7391
▁object	-11.7391
▁semester	-11.7391
▁snappy	-11.7391
▁hypothyroidism	-11.7391
▁asthma	-11.7391
▁emotionless	-11.7391
▁sciatic	-11.7392
▁glasses	-11.7393
▁dep	-11.7396
▁coping	-11.7396
▁semi	-11.7397
▁acetaminophen	-11.74
▁em	-11.7401
▁phobia	-11.7401
▁bare	-11.7401
dose	-11.7404
▁burps	-11.7407
▁:/	-11.7407
▁reasonable	-11.7409
▁board	-11.741
▁carefully	-11.7422
▁prob	-11.7423
▁3:##	-11.7436
▁pulling	-11.7439
▁bleeds	-11.7447
lamictal	-11.745
▁toes	-11.7455
▁suppresse	-11.7456
▁wh	-11.7458
▁preg	-11.746
▁via	-11.746
▁decades	-11.7472
▁athletic	-11.7494
▁practitioner	-11.7494
▁towel	-11.7494
▁press	-11.7495
▁dozen	-11.7495
▁##/##.	-11.7496
▁conversations	-11.7505
▁3-6	-11.7508
▁appeared	-11.751
▁####-####	-11.7511
▁occurs	-11.7511
mine	-11.7512
-7	-11.752
app	-11.753
▁bus	-11.7531
▁suggestion	-11.7532
▁bites	-11.7533
▁8-	-11.7537
▁es	-11.7539
▁soooo	-11.7547
accutane	-11.7554
ake	-11.7555
yo	-11.7586
▁detox	-11.7587
▁clamp	-11.7588
▁enter	-11.7589
▁blow	-11.7591
▁inconvenient	-11.7598
▁lubrication	-11.7598
▁officially	-11.7599
▁clotting	-11.7599
▁1.5/##	-11.76
▁disturbing	-11.7601
▁downhill	-11.7601
▁tied	-11.7601
▁walgreens	-11.7607
▁teachers	-11.7608
▁wired	-11.7611
▁consist	-11.7616
pping	-11.7618
▁cigarettes	-11.7625
▁join	-11.7626
▁nails	-11.7626
▁aftera	-11.7631
▁interaction	-11.7634
▁progressed	-11.7635
oo	-11.7636
▁2:##	-11.7647
▁remains	-11.7649
▁fr	-11.7661
▁suggestions	-11.7669
▁bothers	-11.767
▁3/4	-11.7687
▁crack	-11.7693
▁5&####;3	-11.7695
▁auto	-11.7703
▁folks	-11.7703
▁frequency	-11.7703
▁mishap	-11.7703
▁topiramate	-11.7703
▁resume	-11.7703
▁equal	-11.7703
▁silly	-11.7703
▁affective	-11.7706
▁wood	-11.7708
gastrointesti	-11.7708
▁inner	-11.772
▁failing	-11.7721
▁discussed	-11.7725
ugh	-11.7726
bed	-11.7732
▁nsaids	-11.7732
once	-11.7735
▁greater	-11.7742
▁suit	-11.7745
▁concerning	-11.7751
▁spell	-11.7752
ologist	-11.7756
bli	-11.7758
▁epi	-11.7761
au	-11.7763
headed	-11.7767
ah	-11.7777
▁depressant	-11.778
▁score	-11.78
▁5&####;6	-11.7801
▁psychological	-11.7806
▁bacteria	-11.7808
▁propranolol	-11.781
▁qysmia	-11.781
▁tumor	-11.781
▁walmart	-11.781
▁clogged	-11.781
▁stiffness	-11.7811
▁alcoholic	-11.7816
▁passes	-11.7817
▁shit	-11.7817
▁yelling	-11.7818
▁sold	-11.782
▁stools	-11.7822
▁additionally	-11.7824
▁insanely	-11.7832
try	-11.7842
▁building	-11.7846
zy	-11.7848
▁tremor	-11.7848
rag	-11.7848
▁ya	-11.7856
thro	-11.7865
▁wa	-11.7867
ambien	-11.7873
▁solve	-11.7912
rn	-11.7912
▁disaster	-11.7917
▁pancreatitis	-11.7917
▁speech	-11.7917
▁themselves	-11.7917
▁atarax	-11.7917
▁inconsistent	-11.7917
▁potassium	-11.7917
▁progestin	-11.7917
▁university	-11.7917
▁himself	-11.7918
▁pace	-11.7919
▁lesson	-11.792
▁fist	-11.792
▁equivalent	-11.7924
▁glowing	-11.7924
▁7-##	-11.7926
▁swor	-11.7937
▁mths	-11.7941
pan	-11.7945
▁fle	-11.7955
ism	-11.7956
everyone	-11.7983
/####	-11.7984
▁interactions	-11.7989
▁pair	-11.7997
gest	-11.8015
effective	-11.8018
▁intermittent	-11.8022
▁sporadic	-11.8025
▁fetzima	-11.8026
▁happily	-11.8026
▁kadian	-11.8026
▁meditation	-11.8026
▁straw	-11.8026
ff	-11.8028
▁metallic	-11.803
▁fried	-11.8032
▁excessively	-11.8042
▁defin	-11.8048
▁comp	-11.8051
▁rotat	-11.8057
▁costly	-11.8079
▁oz	-11.8082
getting	-11.8084
▁opt	-11.8091
caused	-11.8092
▁exp	-11.8104
▁cap	-11.8112
▁suffers	-11.8131
▁trauma	-11.8135
▁heaviness	-11.8136
▁micronor	-11.8136
▁rinse	-11.8136
▁abruptly	-11.8136
▁unisom	-11.8136
▁despair	-11.8137
ew	-11.8138
▁shy	-11.814
▁paroxetine	-11.8141
▁pri	-11.8145
nce	-11.815
▁checkup	-11.815
▁endless	-11.8151
▁improves	-11.8153
ging	-11.8197
adhd	-11.8203
emotional	-11.8203
definitely	-11.8203
(##	-11.8212
og	-11.8226
▁2)	-11.8229
▁ejaculate	-11.8237
▁proactiv	-11.8243
▁potent	-11.8245
▁concentrating	-11.8247
▁kitchen	-11.8247
▁ointment	-11.8247
▁remedy	-11.8247
▁zohydro	-11.8247
▁skills	-11.8247
▁lyza	-11.8247
▁feedback	-11.8247
▁spray	-11.8247
▁peaceful	-11.8247
▁urinating	-11.8248
▁genuinely	-11.8248
▁country	-11.8249
▁brownish	-11.8249
▁rise	-11.825
ml	-11.8273
▁falls	-11.8273
▁painkillers	-11.8276
▁7/##	-11.828
▁lifetime	-11.8281
▁listened	-11.8282
▁rip	-11.8283
▁depend	-11.8283
▁7-	-11.8294
etc	-11.8313
diabetic	-11.8315
zoloft	-11.8315
▁5/##	-11.8316
▁q	-11.8321
pine	-11.8327
proved	-11.833
ep	-11.8332
▁fl	-11.8336
▁refills	-11.8342
▁apprehensive	-11.8359
▁horrifying	-11.8359
▁religiously	-11.8359
▁handful	-11.8362
▁pantyliner	-11.8362
▁ruptured	-11.8362
▁yellow	-11.8363
contin	-11.8369
▁hundreds	-11.8379
▁tricyclen	-11.838
▁hill	-11.8381
▁fainting	-11.8384
▁spike	-11.8393
▁smells	-11.8427
▁alternatives	-11.845
wks	-11.8459
▁minimize	-11.8463
▁remembered	-11.8464
▁bizarre	-11.8473
▁measuring	-11.8473
▁timing	-11.8473
▁thanksgiving	-11.8473
▁loseasonique	-11.8473
▁popped	-11.8474
▁stability	-11.8474
▁introduced	-11.8474
▁seasonale	-11.8476
▁enjoyable	-11.8478
▁trainer	-11.848
▁spaced	-11.8486
▁bike	-11.8487
non	-11.8499
▁4/##	-11.8499
ised	-11.85
8	-11.85
related	-11.8509
▁lord	-11.851
▁marked	-11.8524
ee	-11.8533
nexplanon	-11.8544
wellbutrin	-11.8544
▁rule	-11.8547
▁reg	-11.8564
▁base	-11.8581
▁grocery	-11.8588
▁machine	-11.8588
▁natazia	-11.8588
▁pharmacies	-11.8588
▁bald	-11.8588
▁gassy	-11.8588
▁hypo	-11.8588
▁dreadful	-11.8588
▁visible	-11.8588
▁coco	-11.859
▁shall	-11.8591
▁encountered	-11.8593
ular	-11.8593
▁wasted	-11.8602
coming	-11.8652
previfem	-11.866
▁town	-11.8662
▁mcg	-11.8668
▁leak	-11.8693
▁advantage	-11.8704
▁thirty	-11.8704
▁standard	-11.8704
▁talkative	-11.8705
▁metal	-11.871
lol	-11.873
▁safer	-11.8744
▁atypical	-11.8752
▁lung	-11.8753
▁socially	-11.8753
▁3/##	-11.8757
taken	-11.8774
ren	-11.878
---	-11.88
▁provides	-11.8808
ress	-11.8808
▁confirm	-11.8812
▁create	-11.8812
▁rational	-11.8818
▁fertility	-11.8822
▁nortriptyline	-11.8822
▁paralysis	-11.8822
▁pleasure	-11.8822
▁recurring	-11.8822
▁stairs	-11.8822
▁texture	-11.8822
▁poking	-11.8822
▁tics	-11.8823
▁aggression	-11.8824
▁persisted	-11.8828
eat	-11.8833
que	-11.8838
▁lu	-11.8851
▁lump	-11.888
▁steroids	-11.8887
▁supposedly	-11.8894
effexor	-11.8897
during	-11.8898
▁relieves	-11.8928
▁4.5	-11.8928
▁experiment	-11.893
zer	-11.8934
▁6/##/##	-11.8935
▁judge	-11.894
▁text	-11.8941
▁adhesive	-11.8941
▁automatically	-11.8941
▁hungrier	-11.8941
▁rozerem	-11.8941
▁tachycardia	-11.8941
▁throbbing	-11.8941
▁unknown	-11.8941
▁charge	-11.8941
▁perscribed	-11.8941
▁atralin	-11.8941
▁jerk	-11.8941
▁visual	-11.8941
▁proven	-11.8943
▁setting	-11.8945
▁intestin	-11.8946
ities	-11.8949
▁jeans	-11.8949
▁lap	-11.8958
▁jobs	-11.8962
▁smoker	-11.8965
▁ages	-11.897
▁sensations	-11.8976
▁pig	-11.8981
▁pmsing	-11.8984
ked	-11.8985
▁erection	-11.8993
hate	-11.9004
ual	-11.901
switched	-11.902
does	-11.9022
##)	-11.9028
fast	-11.9039
held	-11.9044
▁noise	-11.9044
▁ignore	-11.9051
van	-11.9055
▁regime	-11.9056
▁adderal	-11.906
▁fibro	-11.9061
▁private	-11.9061
▁rubbish	-11.9061
▁zofran	-11.9061
▁avapro	-11.9061
▁route	-11.9061
▁disappointing	-11.9062
▁aggravated	-11.9064
▁weather	-11.9065
▁###.2	-11.9066
▁spotty	-11.9066
▁underweight	-11.9067
▁2.4	-11.9067
▁forum	-11.9069
▁permanently	-11.9072
▁1:##	-11.9082
izing	-11.909
▁responds	-11.909
▁###-###.	-11.9093
▁fearful	-11.9097
▁regards	-11.9099
▁7/##/##	-11.9103
active	-11.9106
done	-11.9109
break	-11.9113
▁(7	-11.9116
add	-11.9117
▁voice	-11.9121
▁bam	-11.9135
esteem	-11.9139
keep	-11.914
rate	-11.9142
▁resting	-11.9147
ax	-11.9165
▁warnings	-11.9166
man	-11.9169
▁avoided	-11.9172
-4	-11.9182
▁commit	-11.9183
▁easiest	-11.9183
▁plague	-11.9183
▁boom	-11.9183
▁misdiagnosed	-11.9183
▁injuries	-11.9186
▁xenical	-11.9188
▁midol	-11.9188
▁blessed	-11.9196
▁park	-11.92
▁ja	-11.9202
▁hence	-11.9207
▁candy	-11.9223
▁scaring	-11.9225
lar	-11.9229
▁closely	-11.9231
▁bo	-11.9232
▁dreaming	-11.9233
▁nicely	-11.9234
▁nora	-11.9241
ice	-11.9247
▁tolerated	-11.9253
going	-11.9259
will	-11.9263
▁unit	-11.9281
▁ru	-11.9281
clear	-11.9288
▁draw	-11.9292
leg	-11.9302
▁calendar	-11.9307
▁disabled	-11.9307
▁field	-11.9307
▁queasy	-11.9307
▁tendencies	-11.9307
▁tinnitus	-11.9307
▁blind	-11.9307
▁background	-11.9311
▁mon	-11.9315
▁soo	-11.9317
▁bitter	-11.9332
▁4:##	-11.9335
pped	-11.9338
▁substitute	-11.9373
▁appointments	-11.9377
run	-11.9377
social	-11.9386
abilify	-11.9388
bleeding	-11.9388
▁electric	-11.9388
without	-11.9389
▁scan	-11.9416
▁insides	-11.9417
stat	-11.9419
▁yawn	-11.9421
dia	-11.9424
▁lab	-11.9431
▁accurate	-11.9432
▁counseling	-11.9432
▁risperidone	-11.9432
▁varies	-11.9432
▁hyperactivity	-11.9432
ica	-11.9432
▁rub	-11.9434
▁fitting	-11.9435
▁considerable	-11.9435
▁ejaculation	-11.9437
▁meeting	-11.9448
▁reminder	-11.9454
▁1)	-11.9462
▁jumping	-11.9465
hoo	-11.9467
▁boys	-11.9467
▁fluids	-11.9471
▁abused	-11.9471
▁melt	-11.9471
▁produce	-11.9481
▁steroid	-11.9489
▁disk	-11.949
▁stabilizers	-11.9508
half	-11.9514
however	-11.9515
!),	-11.9523
▁sites	-11.9536
▁cook	-11.9538
ay	-11.9546
▁rep	-11.9547
▁perk	-11.955
▁destroy	-11.9552
▁darvocet	-11.9558
▁erratic	-11.9558
▁foreign	-11.9558
▁tolerant	-11.9558
▁medicare	-11.9558
▁truck	-11.9558
▁slipping	-11.9559
▁intend	-11.956
▁sane	-11.9561
sia	-11.9562
▁overeat	-11.9562
▁brighter	-11.9564
hip	-11.957
▁bumpy	-11.957
▁periodically	-11.9574
dash	-11.9574
▁studying	-11.9582
▁#	-11.9588
▁projects	-11.9599
▁urges	-11.9601
▁exc	-11.9621
gained	-11.9622
▁section	-11.9628
▁touching	-11.963
▁hits	-11.964
cramps	-11.9643
▁decreases	-11.9646
▁eggs	-11.9662
▁titrat	-11.9672
ranging	-11.9674
▁conceive	-11.9676
▁substantial	-11.9683
▁erecti	-11.9685
▁circumstances	-11.9686
▁courage	-11.9686
▁excercise	-11.9686
▁military	-11.9686
▁sunscreen	-11.9686
▁edema	-11.9686
▁misoprostol	-11.9686
▁dependence	-11.9686
▁music	-11.9687
▁suppressant	-11.9687
▁inhibitor	-11.9687
▁slice	-11.9687
/1/##	-11.9687
▁occurring	-11.969
▁matters	-11.9692
▁lingering	-11.9694
▁kit	-11.9696
▁measured	-11.9701
▁recovered	-11.9703
▁proof	-11.9706
▁encouraged	-11.9707
▁3/##/##	-11.9709
▁exist	-11.9717
rie	-11.9722
▁micro	-11.974
▁cor	-11.9742
▁ingredient	-11.9747
ery	-11.9754
both	-11.9756
adderall	-11.9773
recently	-11.9773
finally	-11.9773
around	-11.9773
▁dd	-11.9778
ger	-11.9792
▁diminish	-11.9795
▁resolve	-11.9806
▁cozaar	-11.9816
▁street	-11.9816
▁sobbing	-11.9816
▁coincidence	-11.9816
▁provigil	-11.9816
▁flaking	-11.9816
▁stung	-11.9816
▁hospitalization	-11.9817
▁fool	-11.9817
▁organized	-11.982
care	-11.982
▁beautifully	-11.9829
ache	-11.983
▁softener	-11.9834
▁6/##	-11.9835
▁accepted	-11.9838
▁relievers	-11.9839
▁actions	-11.9842
▁(8	-11.9843
▁pieces	-11.9845
▁pl	-11.985
ations	-11.9871
▁mum	-11.9875
▁damaged	-11.9875
▁ju	-11.992
▁prove	-11.9924
▁twitch	-11.9936
▁rem	-11.9937
▁determine	-11.9938
▁fracture	-11.9943
▁hung	-11.9945
▁apnea	-11.9948
▁averaging	-11.9948
▁avinza	-11.9948
▁climax	-11.9948
▁stabilizing	-11.9948
▁puke	-11.9948
▁screen	-11.9948
▁pillow	-11.9948
▁crackers	-11.9948
▁heroin	-11.995
▁chew	-11.9953
▁pulmon	-11.9953
▁insomniac	-11.9967
carried	-11.9983
cept	-11.9987
ial	-12.0008
▁movie	-12.0011
▁cell	-12.0011
aking	-12.0023
awesome	-12.0037
give	-12.0039
▁tips	-12.0061
▁aspects	-12.0068
ude	-12.0071
▁explode	-12.0071
▁5&####;7	-12.0073
▁surgical	-12.0078
▁insecure	-12.0081
▁service	-12.0081
▁testosterone	-12.0081
▁twelve	-12.0081
▁sonata	-12.0081
▁swimming	-12.0081
▁vyvance	-12.0081
▁cbt	-12.0081
▁profound	-12.0081
▁seemingly	-12.0081
▁fake	-12.0082
▁disability	-12.0082
▁continually	-12.0083
▁cancel	-12.0085
▁neutral	-12.0086
▁unexpectedly	-12.0087
▁np	-12.0089
#	-12.0112
grad	-12.0124
;##	-12.0127
▁played	-12.0129
using	-12.013
▁members	-12.0142
ify	-12.0144
drive	-12.0159
wise	-12.0161
▁u	-12.0166
including	-12.0173
▁flush	-12.0196
▁butter	-12.0197
▁vers	-12.02
▁answers	-12.0205
▁yell	-12.0205
▁path	-12.0211
▁neuro	-12.0216
▁impulse	-12.0216
▁levemir	-12.0216
▁metadate	-12.0216
▁plastic	-12.0216
▁:-)	-12.0216
▁underlying	-12.0216
▁chair	-12.0217
▁impatient	-12.0217
▁substantially	-12.022
▁difficulties	-12.0222
▁complex	-12.0222
▁desperately	-12.0227
▁4/##/##	-12.0232
▁purge	-12.0236
men	-12.0239
▁overeating	-12.0239
▁compliments	-12.0259
▁drinker	-12.0261
▁seasonal	-12.0263
▁lacking	-12.0265
▁ward	-12.0268
where	-12.0272
▁reacting	-12.0285
▁noted	-12.0293
▁spikes	-12.03
▁slows	-12.0305
miracle	-12.031
heart	-12.031
currently	-12.031
▁blockers	-12.0311
atic	-12.0313
read	-12.0321
▁caring	-12.0321
▁connect	-12.034
▁consume	-12.0344
▁da	-12.0348
cin	-12.035
▁cluster	-12.0353
▁disoriented	-12.0353
▁fluconazole	-12.0353
▁micardis	-12.0353
▁scrub	-12.0353
▁tazorac	-12.0353
▁punch	-12.0353
▁source	-12.0353
▁unmanageable	-12.0353
▁spinning	-12.0353
▁ground	-12.0353
▁stock	-12.0353
▁gaba	-12.0353
▁assistance	-12.0354
▁suppression	-12.0354
▁coke	-12.0355
▁dating	-12.0356
▁wary	-12.036
▁consequences	-12.036
▁3-	-12.0361
▁5&####;4&	-12.0365
▁5&####;2&	-12.0365
pen	-12.0372
▁minus	-12.0378
▁cord	-12.0378
▁ser	-12.0378
▁spa	-12.039
sad	-12.039
lin	-12.0395
head	-12.04
▁"2	-12.041
full	-12.0437
mmed	-12.0441
paxil	-12.0448
▁stores	-12.0456
▁leads	-12.0461
▁treats	-12.0468
▁stepp	-12.0477
ray	-12.048
▁regain	-12.0483
▁ectopic	-12.0492
▁lupus	-12.0492
▁munchies	-12.0492
▁pelvis	-12.0492
▁temporarily	-12.0492
▁untreated	-12.0492
▁vaginosis	-12.0492
▁credit	-12.0492
▁freedom	-12.0492
▁prescribes	-12.0493
▁twitches	-12.0493
▁acceptable	-12.0493
▁gallon	-12.0494
▁frightening	-12.0494
▁tossing	-12.0494
▁panicky	-12.0498
▁infrequent	-12.0499
▁reluctantly	-12.05
▁flushing	-12.0504
▁lovely	-12.0504
▁5&####;5&	-12.0505
▁messes	-12.0505
▁cur	-12.0508
zone	-12.0513
▁bucks	-12.0513
ach	-12.0513
▁beside	-12.0516
▁twins	-12.0517
▁monitoring	-12.0518
▁log	-12.0535
▁!!!!	-12.0554
▁pinching	-12.056
▁troubles	-12.0571
skin	-12.0574
ient	-12.0577
▁bug	-12.0581
would	-12.0589
weird	-12.0589
felt	-12.059
▁bat	-12.0596
ups	-12.0597
feeling	-12.0606
step	-12.0609
▁drain	-12.0612
▁dress	-12.0617
▁crawl	-12.0622
▁curve	-12.063
▁temp	-12.0631
▁advance	-12.0633
▁flavor	-12.0633
▁happiest	-12.0633
▁shingles	-12.0633
▁vulva	-12.0633
▁embolism	-12.0633
▁bullet	-12.0633
▁hypomanic	-12.0633
▁nasal	-12.0634
▁titration	-12.0634
▁mass	-12.0634
▁2/3	-12.0634
cyclin	-12.0635
▁grinding	-12.0637
▁trials	-12.0638
▁estarylla	-12.0639
▁cerave	-12.0639
▁endured	-12.0642
▁5&####;7&	-12.0642
starting	-12.0648
▁soundly	-12.0653
▁injecting	-12.0654
▁sea	-12.0658
▁complet	-12.066
▁coat	-12.0671
yaz	-12.0676
▁2/##/##	-12.0687
▁reports	-12.0712
insomnia	-12.0732
better	-12.0732
ole	-12.0739
▁6.5	-12.0739
▁beg	-12.0749
▁retain	-12.0755
ately	-12.0755
▁predict	-12.0758
nch	-12.0758
lower	-12.0768
▁prepare	-12.0769
▁direct	-12.077
▁fortunate	-12.0772
▁flake	-12.0774
▁puking	-12.0776
▁guarantee	-12.0776
▁keel	-12.0776
▁neutrogena	-12.0776
▁raising	-12.0776
▁safyral	-12.0776
▁subsiding	-12.0776
▁suppository	-12.0776
▁chalk	-12.0776
▁tendency	-12.0776
▁necon	-12.0776
▁pdoc	-12.0776
▁#2	-12.0776
▁profusely	-12.0777
▁altered	-12.0784
▁dissolve	-12.0785
▁inexpensive	-12.0785
▁violently	-12.0785
▁crawling	-12.0787
▁orders	-12.0788
stood	-12.0789
▁panties	-12.0792
▁bend	-12.0803
▁rev	-12.0804
▁details	-12.0814
▁sell	-12.0816
▁moodier	-12.0816
▁bounc	-12.0817
▁repair	-12.0823
▁chemicals	-12.083
▁1-	-12.084
▁parent	-12.0852
/2	-12.087
extreme	-12.0873
▁nex	-12.0874
psychotic	-12.0876
knock	-12.0877
prozac	-12.0877
worse	-12.0877
short	-12.0877
same	-12.0878
stress	-12.0882
▁relaxing	-12.0883
▁bloody	-12.0889
these	-12.0891
▁ri	-12.0895
▁newer	-12.0897
▁triggers	-12.09
▁reject	-12.0911
▁decline	-12.0912
▁wack	-12.0919
▁anesthetic	-12.0921
▁fridge	-12.0921
▁sophomore	-12.0921
▁flip	-12.0921
▁hostile	-12.0921
▁isotretinoin	-12.0921
▁tingle	-12.0922
▁scoliosis	-12.0924
self	-12.0927
▁linked	-12.0928
▁ignored	-12.0933
▁5&####;6&	-12.0933
▁5&####;3&	-12.0933
itching	-12.0956
▁war	-12.096
▁disappearing	-12.0963
lor	-12.0975
▁begins	-12.0993
▁chill	-12.0996
▁bothering	-12.1006
▁restart	-12.1006
▁forums	-12.1012
dental	-12.1016
mid	-12.1018
happy	-12.1023
klonopin	-12.1024
mirena	-12.1024
avi	-12.1027
▁loves	-12.1038
▁contacts	-12.1046
loved	-12.1065
▁danger	-12.1065
ouch	-12.1065
▁buzz	-12.1065
▁budge	-12.1068
▁choosing	-12.1068
▁conclusion	-12.1068
▁culprit	-12.1068
▁devastated	-12.1068
▁dopamine	-12.1068
▁edgy	-12.1068
▁olanzapine	-12.1068
▁distance	-12.1068
▁hesitate	-12.1068
▁outrageous	-12.1068
▁expense	-12.1068
▁intensified	-12.1069
aid	-12.107
▁willpower	-12.1077
▁tu	-12.1077
▁tape	-12.108
▁deserve	-12.1084
▁triple	-12.1086
▁herbal	-12.1112
▁nr	-12.1117
▁sever	-12.1118
▁listening	-12.1119
▁cups	-12.1138
ef	-12.1145
▁direction	-12.1148
/8	-12.1159
▁wort	-12.1161
▁stages	-12.1164
extremely	-12.1177
▁carrie	-12.1179
▁dermatologists	-12.118
headaches	-12.1202
▁relapse	-12.1207
▁pus	-12.1213
▁john	-12.1216
▁approval	-12.1217
▁banana	-12.1217
▁bontril	-12.1217
▁marathon	-12.1217
▁spouse	-12.1217
▁sulfur	-12.1217
▁trembling	-12.1217
▁robot	-12.1217
▁roxicodone	-12.1217
▁coreg	-12.1218
▁delivery	-12.1219
▁understood	-12.1219
▁spin	-12.122
▁partially	-12.122
▁message	-12.1221
ectomy	-12.1224
▁twenties	-12.1225
▁pr	-12.123
▁cooking	-12.123
▁sores	-12.1233
▁gpa	-12.1235
▁enable	-12.1237
▁##/##/##.	-12.124
▁plateaued	-12.1241
▁peeled	-12.1243
▁medic	-12.1256
▁ribs	-12.1266
▁peeing	-12.1269
▁des	-12.1286
▁sooooo	-12.1303
pp	-12.1307
▁lit	-12.1308
▁amphetamine	-12.1321
▁concentrated	-12.1321
pigmentation	-12.1324
▁feared	-12.1328
▁refer	-12.1336
▁salads	-12.1342
▁behaviors	-12.1348
▁par	-12.1356
new	-12.1361
▁immense	-12.1365
▁pan	-12.1368
▁flash	-12.1368
▁access	-12.1369
▁character	-12.1369
▁environment	-12.1369
▁novolog	-12.1369
▁stadol	-12.1369
▁straterra	-12.1369
▁suboxone	-12.1369
▁vicoprofen	-12.1369
▁sailing	-12.1369
▁upbeat	-12.1369
▁view	-12.1369
▁#3	-12.1369
▁precum	-12.1369
▁frankly	-12.1369
▁hcl	-12.1369
▁yard	-12.1371
▁aunt	-12.1377
▁climbing	-12.1378
▁purging	-12.1379
▁image	-12.138
▁fibroids	-12.1389
▁deeper	-12.1394
▁ven	-12.1394
▁swallowing	-12.1394
▁staring	-12.1397
ase	-12.1404
den	-12.1407
▁lock	-12.1408
▁impacted	-12.1409
▁pin	-12.141
ches	-12.1415
ward	-12.1417
ggy	-12.1425
▁2/##	-12.1431
▁member	-12.1453
▁##/####	-12.146
▁pil	-12.1467
▁pe	-12.1467
thought	-12.1469
why	-12.1479
blood	-12.1479
brand	-12.148
ade	-12.1481
▁gall	-12.1481
yay	-12.1482
▁placebos	-12.1504
▁subject	-12.1522
▁blank	-12.1522
▁ounce	-12.1522
▁reassure	-12.1522
▁crohn	-12.1522
▁sperm	-12.1522
▁uncontrolled	-12.1523
▁ripped	-12.1523
▁sentence	-12.1523
▁compell	-12.1523
▁cuff	-12.1523
▁socialize	-12.1525
▁retired	-12.1527
▁indicated	-12.1528
▁youngest	-12.153
male	-12.153
▁disconnected	-12.1531
▁mistakes	-12.1531
▁gene	-12.1531
▁inconvenience	-12.1531
▁####).	-12.1532
▁earth	-12.1536
▁recurren	-12.154
▁feeding	-12.1543
▁forte	-12.1553
body	-12.1555
▁veins	-12.1557
her	-12.1576
itch	-12.1593
▁1/##/##	-12.1604
▁tub	-12.1606
▁iuds	-12.1611
nuvaring	-12.1635
▁calls	-12.1641
▁arrive	-12.1669
▁renew	-12.167
▁yea	-12.1672
▁convince	-12.1673
cks	-12.1673
▁miraculous	-12.1675
▁diagnose	-12.1676
▁blemish	-12.1678
▁accustomed	-12.1679
▁aquaphor	-12.1679
▁laxative	-12.1679
▁respirator	-12.1679
▁comfortably	-12.1679
▁boot	-12.1679
▁underneath	-12.1679
▁snapping	-12.1679
▁diane	-12.1679
▁jack	-12.168
▁safety	-12.1682
▁inattentive	-12.1686
▁combinations	-12.1691
hours	-12.1698
▁tre	-12.17
▁nighttime	-12.1718
gave	-12.173
▁thousands	-12.1731
▁trusted	-12.176
▁opioid	-12.1768
▁elbow	-12.1768
▁holiday	-12.1768
▁orgasms	-12.1782
▁ideas	-12.1785
least	-12.1794
three	-12.1794
female	-12.1794
-6	-12.1803
lly	-12.1803
▁norm	-12.1808
▁sufferer	-12.1813
▁obsess	-12.1818
kin	-12.182
▁endure	-12.1833
▁5&####;##	-12.1835
cut	-12.1835
▁basic	-12.1837
▁article	-12.1837
▁orange	-12.1837
▁pissed	-12.1837
▁prednisone	-12.1837
▁regulation	-12.1837
▁speculum	-12.1837
▁threshold	-12.1837
▁video	-12.1837
▁toddler	-12.1837
▁roaccutane	-12.1838
▁flipped	-12.1838
▁rehab	-12.1838
▁toxic	-12.1838
▁series	-12.1838
▁truth	-12.184
▁exper	-12.1841
▁vast	-12.1843
1/2	-12.1843
rip	-12.1844
▁lastly	-12.1846
▁shocks	-12.1847
▁obsessed	-12.1847
▁consumed	-12.1849
▁connected	-12.1849
▁tracker	-12.1854
▁lash	-12.1861
▁fastin	-12.1889
▁dex	-12.1903
▁claim	-12.1907
▁lite	-12.1909
▁toprol	-12.1918
▁pens	-12.1926
bit	-12.1942
▁party	-12.1942
ker	-12.1943
▁tick	-12.1947
epiduo	-12.1955
different	-12.1955
daily	-12.1955
painful	-12.1956
▁team	-12.1986
▁welcome	-12.1989
ome	-12.1989
▁sodas	-12.1992
lip	-12.1996
▁agonizing	-12.1999
▁belching	-12.1999
▁department	-12.1999
▁deprived	-12.1999
▁explanation	-12.1999
▁neurological	-12.1999
▁remarkable	-12.1999
▁crisis	-12.1999
▁negativity	-12.1999
▁trapped	-12.1999
▁intention	-12.1999
▁unrelated	-12.2
▁pour	-12.2001
biotic	-12.2002
▁grand	-12.2003
▁tree	-12.2005
▁clothing	-12.201
▁upsetting	-12.2011
▁flushed	-12.2011
▁canada	-12.2012
▁ridden	-12.2012
bra	-12.2013
▁safely	-12.2039
▁(##-##	-12.2045
▁;)	-12.2049
▁mindful	-12.2064
▁burnt	-12.2065
▁ml	-12.2069
acting	-12.2086
▁cleanse	-12.2093
▁chart	-12.2093
everything	-12.2119
unfortunately	-12.2119
initially	-12.212
along	-12.2126
▁inform	-12.2134
▁cheat	-12.2142
▁goals	-12.2157
▁anxieties	-12.2163
▁argue	-12.2163
▁epilepsy	-12.2163
▁annual	-12.2163
▁chapstick	-12.2163
▁features	-12.2163
▁lymph	-12.2163
▁begging	-12.2163
▁swim	-12.2163
▁stating	-12.2164
▁#1	-12.2164
▁unbelievably	-12.2164
▁runner	-12.2165
▁administered	-12.2169
▁unwell	-12.217
▁fri	-12.2175
▁ejaculated	-12.2177
▁button	-12.2183
▁fractured	-12.2184
▁smoothly	-12.2194
▁lessening	-12.2196
▁backaches	-12.2203
:(	-12.221
post	-12.2221
▁grabb	-12.2224
ute	-12.2224
▁cloth	-12.223
▁8/##/##	-12.2232
▁vo	-12.2234
cted	-12.2248
▁commercial	-12.2259
▁acts	-12.2271
ativan	-12.2286
celexa	-12.2286
literally	-12.2286
morning	-12.2286
june	-12.2286
▁cha	-12.2296
▁differ	-12.2305
case	-12.2315
tric	-12.2316
▁demand	-12.2318
▁dilate	-12.2327
▁knowledge	-12.2329
▁account	-12.2329
▁trans	-12.2329
▁orlistat	-12.2329
▁peripheral	-12.2329
▁respect	-12.2329
▁stigma	-12.2329
▁viorele	-12.2329
▁packaging	-12.2329
▁sheets	-12.2329
▁excuse	-12.233
▁shop	-12.233
▁(####)	-12.2333
▁ekg	-12.2339
▁alongside	-12.2339
▁spacey	-12.2343
ddd	-12.2348
▁tendon	-12.2349
▁rolling	-12.2357
▁situational	-12.2358
▁monitored	-12.2358
▁recalled	-12.2361
▁gosh	-12.2379
▁struggles	-12.2386
▁responses	-12.2389
▁chores	-12.2389
▁ace	-12.2404
▁observ	-12.2417
▁dime	-12.2424
▁drag	-12.2427
▁operation	-12.2429
▁spasm	-12.243
▁sport	-12.243
through	-12.2453
birth	-12.2454
ladies	-12.2455
tired	-12.2456
april	-12.2456
plus	-12.2457
ease	-12.2461
oral	-12.247
fer	-12.2478
▁glow	-12.2488
part	-12.2495
▁unexplain	-12.2498
▁creative	-12.2499
▁clumps	-12.2499
▁tattoo	-12.2499
▁infected	-12.2499
▁abusing	-12.2499
▁medicate	-12.25
▁gf	-12.2502
▁flying	-12.251
bp	-12.2515
▁suspected	-12.2516
▁kilos	-12.2521
▁capable	-12.2521
▁poorly	-12.2524
▁menopausal	-12.2529
lv	-12.2532
▁inflammatory	-12.2536
▁bowels	-12.2538
hour	-12.2559
gram	-12.2559
▁blisters	-12.2564
▁charts	-12.2571
▁screw	-12.2591
▁sugary	-12.2592
rid	-12.2599
▁picture	-12.2601
▁web	-12.2607
▁gladly	-12.2609
despit	-12.2627
tramadol	-12.2627
vyvanse	-12.2628
another	-12.2629
▁edges	-12.264
▁sk	-12.2653
▁5&####;8	-12.2663
▁diff	-12.2664
▁bursitis	-12.2671
▁duragesic	-12.2671
▁government	-12.2671
▁grain	-12.2671
▁mucus	-12.2671
▁vinegar	-12.2671
▁praise	-12.2671
▁cardiac	-12.2671
▁maoi	-12.2671
▁adrenaline	-12.2671
▁bored	-12.2671
▁hungover	-12.2671
▁antihistamine	-12.2672
▁print	-12.2672
▁unreal	-12.2672
▁childbirth	-12.2673
▁dance	-12.2674
▁forgetfulness	-12.2675
▁combine	-12.2677
▁behavioral	-12.2677
▁briefly	-12.2678
▁exacerbated	-12.268
▁obsessing	-12.2683
▁clo	-12.2684
cid	-12.2684
▁leaking	-12.2688
▁purposes	-12.269
▁painfully	-12.2691
▁downward	-12.2695
▁traveling	-12.2696
▁restarted	-12.2699
▁-##	-12.2707
▁persist	-12.2707
cle	-12.2712
▁mixing	-12.272
▁friendly	-12.2721
gh	-12.2727
yet	-12.273
▁wheel	-12.2731
cons	-12.2735
▁fights	-12.2739
▁rn	-12.2754
▁notable	-12.2769
▁orally	-12.2779
▁sober	-12.2781
▁glu	-12.2793
could	-12.28
medication	-12.2803
actually	-12.2803
think	-12.2803
flu	-12.2831
eating	-12.2836
▁resist	-12.2836
▁advertised	-12.2847
▁ambulance	-12.2847
▁australia	-12.2847
▁deductible	-12.2847
▁enlarged	-12.2847
▁monodox	-12.2847
▁laundry	-12.2847
▁sandwich	-12.2847
▁typing	-12.2847
▁email	-12.2847
▁thread	-12.2847
▁unlucky	-12.2847
▁augment	-12.2847
▁cleansing	-12.2847
▁boss	-12.2847
▁dump	-12.2848
▁boil	-12.2848
▁reasonably	-12.2852
▁scariest	-12.2853
▁eyebrows	-12.2856
▁fly	-12.2862
▁accomplished	-12.2865
▁calmness	-12.2874
see	-12.2888
▁alarming	-12.2892
▁nurses	-12.2911
▁math	-12.2928
▁movies	-12.2939
▁intensely	-12.2953
▁probiotic	-12.2956
▁3.##	-12.2965
▁shifts	-12.2966
pristiq	-12.2982
bipolar	-12.2982
jan	-12.2984
stay	-12.2985
big	-12.2987
burning	-12.2992
▁pet	-12.3004
▁alter	-12.3005
any	-12.3014
▁linger	-12.3015
▁graduate	-12.3015
▁cran	-12.302
▁titrate	-12.3021
▁positively	-12.3023
▁challenging	-12.3025
▁delusional	-12.3025
▁horse	-12.3025
▁lomedia	-12.3025
▁meridia	-12.3025
▁miralax	-12.3025
▁ordinary	-12.3025
▁pupils	-12.3025
▁seldom	-12.3025
▁sparingly	-12.3025
▁square	-12.3025
▁tekturna	-12.3025
▁imaginable	-12.3026
▁duty	-12.3026
▁bedroom	-12.3027
▁frightened	-12.3027
▁spf	-12.3028
▁mail	-12.3028
lasting	-12.3029
▁anticipated	-12.3032
▁defeat	-12.3032
▁methylphenidate	-12.3036
▁cloudy	-12.304
▁tricky	-12.3041
▁appreciated	-12.3045
▁scratching	-12.3049
ctor	-12.3063
▁mdd	-12.3075
under	-12.308
help	-12.3085
▁pharma	-12.3095
!!!!!!!	-12.3102
ital	-12.3106
▁aged	-12.3117
▁blister	-12.3137
▁season	-12.3139
▁relaxer	-12.3161
exercise	-12.3163
always	-12.3163
depressed	-12.3163
implanon	-12.3164
planned	-12.3164
uff	-12.3173
gain	-12.3175
fect	-12.3178
▁1/3	-12.3186
par	-12.32
▁grip	-12.3203
▁essential	-12.3203
placing	-12.3206
▁partial	-12.3207
▁havoc	-12.3207
▁insatiable	-12.3207
▁journal	-12.3207
▁phenergan	-12.3207
▁shakiness	-12.3207
▁traditional	-12.3207
▁varied	-12.3207
▁watson	-12.3207
▁tmj	-12.3207
▁ginger	-12.3207
▁uncommon	-12.3207
▁hbp	-12.3207
▁hyperactive	-12.3208
▁rice	-12.3208
▁hallucinate	-12.3208
▁hba	-12.3208
▁flushes	-12.3208
▁fence	-12.321
▁gout	-12.321
▁illnesses	-12.3212
▁withdrawn	-12.3213
▁soothe	-12.3213
▁errin	-12.3214
▁hellish	-12.3215
org	-12.3215
▁screwed	-12.3218
ather	-12.322
▁hctz	-12.3224
▁production	-12.3231
▁thr	-12.3238
▁poke	-12.3247
▁handled	-12.3268
▁adults	-12.3271
▁instances	-12.3276
▁previfem	-12.3277
▁sticky	-12.3278
▁rounds	-12.3283
start	-12.3293
▁(##)	-12.3297
how	-12.3298
▁produc	-12.33
▁showering	-12.3314
tral	-12.3323
▁instance	-12.3323
▁withdrawl	-12.3325
existing	-12.3348
sugar	-12.3351
▁appropriate	-12.3389
▁ashamed	-12.3392
▁contributing	-12.3392
▁grief	-12.3392
▁neuralgia	-12.3392
▁nubain	-12.3392
▁sociable	-12.3392
▁steer	-12.3392
▁weepy	-12.3392
extroamphetamine	-12.3392
▁hooked	-12.3392
▁solely	-12.3393
▁vegan	-12.3393
▁snapped	-12.3393
▁tearful	-12.3393
▁giant	-12.3393
mate	-12.3393
▁chewable	-12.3393
ology	-12.3394
▁prn	-12.3397
▁sustained	-12.3397
▁dwell	-12.3399
▁regained	-12.3407
▁bound	-12.3408
▁somebody	-12.341
▁backup	-12.3413
▁majorly	-12.342
▁clon	-12.3424
▁hav	-12.3425
▁toast	-12.3428
▁awaken	-12.343
▁messy	-12.3434
▁reminded	-12.3441
zol	-12.3449
▁existing	-12.3453
▁contraction	-12.3512
twice	-12.3537
until	-12.3538
bur	-12.3542
▁shared	-12.3542
burn	-12.3548
rk	-12.3549
▁climb	-12.357
▁induce	-12.3571
▁motivate	-12.3571
▁wave	-12.3575
▁financial	-12.3577
▁walks	-12.3578
▁american	-12.3581
▁akathisia	-12.3581
▁halcion	-12.3581
▁horrified	-12.3581
▁onexton	-12.3581
▁phenomenal	-12.3581
▁sufficient	-12.3581
▁ultracet	-12.3581
▁hiding	-12.3581
▁gluten	-12.3581
▁annoyance	-12.3581
▁penny	-12.3581
▁bubbly	-12.3581
▁defiant	-12.3582
▁expectations	-12.3582
▁undiagnosed	-12.3582
▁disgusted	-12.3584
▁moodswings	-12.3584
▁spiked	-12.3597
ense	-12.36
▁teach	-12.3604
▁##.2	-12.3606
▁peels	-12.3612
▁flares	-12.3613
▁anxiousness	-12.3621
phen	-12.363
▁outbreaks	-12.3631
▁doom	-12.3636
▁ulcers	-12.3643
▁sleeper	-12.3644
dep	-12.3647
▁pins	-12.3668
hood	-12.3685
▁stare	-12.3692
vid	-12.3708
▁bri	-12.371
▁tracking	-12.3713
ung	-12.3718
▁insist	-12.3766
▁efficient	-12.377
▁anesthesia	-12.3773
▁apathy	-12.3773
▁auditory	-12.3773
▁counselor	-12.3773
▁faithfully	-12.3773
▁nexaplanon	-12.3773
▁tackle	-12.3773
▁veltin	-12.3773
▁worrisome	-12.3773
▁false	-12.3773
▁honor	-12.3773
▁injured	-12.3773
▁purse	-12.3773
▁session	-12.3773
▁lemon	-12.3773
▁compound	-12.3773
▁location	-12.3773
▁recomend	-12.3773
▁secret	-12.3773
▁fyi	-12.3773
▁meltdown	-12.3773
▁7.5/###	-12.3774
▁thrush	-12.3775
▁tubal	-12.3775
▁problematic	-12.3779
▁plummeted	-12.3779
▁sleepwalking	-12.378
▁crushed	-12.3782
▁retaining	-12.3788
▁limbs	-12.3802
▁cd	-12.3828
▁vaginally	-12.383
▁weightloss	-12.3833
▁pictures	-12.3852
▁val	-12.3866
▁legal	-12.3875
/4/##	-12.3887
▁fluctuate	-12.3889
▁beach	-12.3891
▁chore	-12.3902
car	-12.3911
▁4/5	-12.3924
crying	-12.3926
much	-12.3926
wonderful	-12.3926
numb	-12.3926
type	-12.3927
▁feed	-12.3927
neck	-12.393
▁refuses	-12.3939
▁bottles	-12.3943
▁deliver	-12.3957
###/	-12.3966
▁behaviour	-12.3969
▁consumption	-12.3969
▁influence	-12.3969
▁kapvay	-12.3969
▁succeed	-12.3969
▁unique	-12.3969
▁blew	-12.3969
▁hinder	-12.3969
▁kidding	-12.3969
▁noticable	-12.3969
▁updating	-12.3969
▁impairment	-12.3969
▁popular	-12.397
▁lube	-12.397
▁formulation	-12.397
▁bedridden	-12.397
▁rose	-12.3973
▁duloxetine	-12.3973
▁connection	-12.3974
▁alternating	-12.3974
▁designed	-12.3976
▁thicker	-12.3977
▁gap	-12.3977
▁moon	-12.3978
▁familiar	-12.3979
▁declined	-12.3983
▁awakening	-12.3983
▁strictly	-12.3984
air	-12.3985
▁rear	-12.3987
▁regulates	-12.3994
▁produced	-12.3995
turn	-12.4016
times	-12.4024
fib	-12.4026
▁ouch	-12.4029
clo	-12.4041
▁pds	-12.4049
▁screws	-12.4049
▁ached	-12.4062
▁dig	-12.4063
real	-12.4063
▁reviewed	-12.4091
▁gels	-12.4097
▁suits	-12.41
fact	-12.4102
▁formed	-12.4106
thanks	-12.4108
saver	-12.4112
conscious	-12.4125
inflammatory	-12.4125
stimulant	-12.4125
▁blocks	-12.4128
hh	-12.4136
▁newly	-12.4137
drug	-12.4145
mths	-12.4159
▁approve	-12.416
▁dys	-12.4163
morbid	-12.4169
▁biggie	-12.4169
▁cereal	-12.4169
▁clinique	-12.4169
▁diastolic	-12.4169
▁enlargement	-12.4169
▁nuisance	-12.4169
▁orthopedic	-12.4169
▁manifest	-12.4169
▁stabbed	-12.4169
▁value	-12.4169
▁wrap	-12.417
▁keto	-12.417
▁appearance	-12.417
▁closing	-12.417
▁drift	-12.4171
▁surrounding	-12.4172
▁dogs	-12.4172
▁relative	-12.4173
face	-12.4173
▁wits	-12.4173
▁skyrocketed	-12.4174
▁occurrence	-12.4174
▁passion	-12.4174
▁engaged	-12.4177
▁5&####;##&	-12.418
wing	-12.4181
▁exploded	-12.4184
▁enzymes	-12.4187
▁cracked	-12.4188
ema	-12.4195
▁nite	-12.4199
▁builds	-12.4202
4-	-12.4206
▁crashed	-12.4218
▁ka	-12.4218
▁breakdowns	-12.4221
list	-12.4228
win	-12.4229
▁topicals	-12.424
quil	-12.4246
▁relaxers	-12.425
▁sec	-12.4251
▁smelling	-12.4254
▁driver	-12.4271
▁army	-12.4275
▁showered	-12.4276
stone	-12.4302
▁grab	-12.431
order	-12.4327
regular	-12.4329
major	-12.433
ortho	-12.433
constant	-12.433
seems	-12.433
vomiting	-12.4332
ipped	-12.4338
▁spontaneous	-12.4344
ria	-12.4351
early	-12.4357
here	-12.4361
▁appeal	-12.4362
▁shoot	-12.4362
▁exams	-12.4366
▁creativity	-12.4373
▁desperation	-12.4373
▁moisturizing	-12.4373
▁perspective	-12.4373
▁powder	-12.4373
▁purple	-12.4373
▁restaurant	-12.4373
▁salicyl	-12.4373
▁triglycerides	-12.4373
▁hallucinating	-12.4373
▁ecstatic	-12.4373
▁isolated	-12.4373
▁mimic	-12.4373
▁temperature	-12.4373
▁reoccurring	-12.4374
▁medicating	-12.4374
▁gift	-12.4374
▁calves	-12.4374
▁sake	-12.4374
▁ppl	-12.4378
▁coordination	-12.4379
▁salty	-12.4381
▁chewing	-12.4391
▁organic	-12.4391
▁darker	-12.4398
▁withdrawing	-12.44
▁metabolize	-12.4401
▁makers	-12.4404
doc	-12.4408
▁kgs	-12.4415
▁tries	-12.4418
-2	-12.444
▁bid	-12.4445
▁batch	-12.4449
▁percocets	-12.4453
▁poster	-12.4453
tional	-12.4454
note	-12.4456
▁commercials	-12.446
changed	-12.4489
dec	-12.4491
▁thousand	-12.4512
▁##.8	-12.453
anxious	-12.4538
bloating	-12.4538
▁degrees	-12.4539
slight	-12.4545
land	-12.4555
xl	-12.4574
▁beauty	-12.4582
▁denial	-12.4582
▁providing	-12.4582
▁rosacea	-12.4582
▁scenario	-12.4582
▁society	-12.4582
▁terrific	-12.4582
▁wicked	-12.4582
▁latter	-12.4582
▁rls	-12.4582
▁demon	-12.4582
▁instability	-12.4582
▁superior	-12.4582
▁palms	-12.4583
▁percentage	-12.4583
hyp	-12.4583
▁bowl	-12.4583
▁boat	-12.4583
▁highschool	-12.4584
▁prego	-12.4586
▁relaxation	-12.4588
▁enhanced	-12.4589
▁guard	-12.459
▁soaked	-12.4591
▁phy	-12.4592
▁fluctuated	-12.4592
▁interfered	-12.4605
▁bitch	-12.4605
▁androgen	-12.4611
▁overdose	-12.4611
▁chosen	-12.4612
▁coworkers	-12.4617
▁oddly	-12.4619
▁seat	-12.4621
▁dulled	-12.4628
▁combin	-12.4636
wish	-12.4637
fu	-12.464
▁std	-12.4648
▁blamed	-12.4657
inine	-12.4678
▁tan	-12.4678
/8/##	-12.468
▁positions	-12.4692
cold	-12.4717
▁ulcer	-12.4725
▁bio	-12.4728
▁eve	-12.4735
▁rib	-12.4737
water	-12.4751
▁grad	-12.4754
▁metaboli	-12.4766
▁drip	-12.4767
olol	-12.4772
diet	-12.4775
▁fu	-12.4779
yyy	-12.4783
▁link	-12.4785
▁wire	-12.4785
ically	-12.4786
▁firm	-12.4791
▁driven	-12.4794
▁complicated	-12.4794
▁cortisone	-12.4794
▁cousin	-12.4794
▁detached	-12.4794
▁devastating	-12.4794
▁epidural	-12.4794
▁niacin	-12.4794
▁promising	-12.4794
▁reassurance	-12.4794
▁stabilization	-12.4794
▁vasectomy	-12.4794
▁eager	-12.4794
▁marijuana	-12.4794
▁pangs	-12.4794
▁aroused	-12.4795
▁lucid	-12.4795
▁unnecessary	-12.4795
▁methyl	-12.4795
▁massage	-12.4795
▁balm	-12.4795
▁tricyclic	-12.4795
▁puffy	-12.4795
▁preventative	-12.4796
▁healthcare	-12.4796
▁calf	-12.4797
▁7.2	-12.4797
▁tetracycline	-12.4802
▁rocky	-12.4803
▁renewed	-12.4808
▁letter	-12.4821
▁loop	-12.4822
▁alleviated	-12.4831
▁soma	-12.4838
▁arguments	-12.4839
▁bpd	-12.4839
▁sexy	-12.4841
▁eff	-12.4843
▁stresses	-12.4843
workers	-12.4844
▁crashing	-12.4852
▁bills	-12.4857
▁assure	-12.4872
▁probiotics	-12.4879
▁"5	-12.49
▁latest	-12.4905
▁ditch	-12.4909
rench	-12.4934
place	-12.4938
▁customer	-12.4942
▁project	-12.4942
▁wrists	-12.4943
▁eliminat	-12.4964
▁gums	-12.4964
loestrin	-12.4967
second	-12.4968
besides	-12.4968
pregnancy	-12.4968
pretty	-12.4968
little	-12.4968
unless	-12.4972
doesn	-12.4973
▁"3	-12.4999
fat	-12.5002
▁doubts	-12.5002
▁reverse	-12.5003
▁extensive	-12.5008
▁chemist	-12.5012
▁select	-12.5012
▁adequate	-12.5012
▁afrezza	-12.5012
▁confusing	-12.5012
▁discoloration	-12.5012
▁disturbances	-12.5012
▁haywire	-12.5012
▁interfering	-12.5012
▁lidoderm	-12.5012
▁magnesium	-12.5012
▁paralyzed	-12.5012
▁pediatrician	-12.5012
▁savior	-12.5012
▁shrunk	-12.5012
▁systolic	-12.5012
▁consuming	-12.5012
▁piercing	-12.5012
▁rubbing	-12.5012
▁stutter	-12.5012
▁wiping	-12.5012
▁rollercoaster	-12.5012
▁gerd	-12.5012
▁pepper	-12.5012
▁herniation	-12.5012
▁monostat	-12.5012
▁supper	-12.5013
zine	-12.5013
▁groin	-12.5013
▁guilty	-12.5014
▁magical	-12.5017
▁surgically	-12.5018
▁boxes	-12.5018
▁hydromorphone	-12.5018
▁rocketed	-12.502
▁depth	-12.5022
5-	-12.5022
▁luvox	-12.5026
▁threatening	-12.5027
▁strongest	-12.503
▁anyhow	-12.503
▁expressed	-12.5035
look	-12.504
▁prop	-12.5042
▁restrictions	-12.5044
▁imagin	-12.5046
▁laughed	-12.5057
▁lex	-12.5059
▁fluctuations	-12.5073
▁inch	-12.5079
ttle	-12.5083
▁elbows	-12.5109
reading	-12.5126
▁disks	-12.5134
▁scans	-12.5135
▁compliment	-12.5164
balance	-12.5188
sensitive	-12.519
hormone	-12.519
diarrhea	-12.519
dizziness	-12.519
super	-12.5191
depo	-12.5193
mark	-12.5205
▁sti	-12.5205
▁annoy	-12.5213
▁survive	-12.5224
ooo	-12.523
▁comparable	-12.5234
▁delusions	-12.5234
▁exforge	-12.5234
▁exposed	-12.5234
▁finacea	-12.5234
▁heaving	-12.5234
▁humalog	-12.5234
▁impulsivity	-12.5234
▁mixture	-12.5234
▁responsibility	-12.5234
▁rexulti	-12.5234
▁scattered	-12.5234
▁virus	-12.5234
▁properties	-12.5234
▁nevertheless	-12.5234
▁reset	-12.5234
▁beverage	-12.5234
▁woozy	-12.5234
▁scrap	-12.5234
▁leakage	-12.5235
▁scarred	-12.5235
▁preferred	-12.5237
▁flakey	-12.5238
▁darkness	-12.5249
▁entered	-12.5256
xr	-12.5263
periods	-12.5267
▁spreading	-12.528
port	-12.5287
via	-12.5288
▁offers	-12.5294
▁refilled	-12.5295
▁boosted	-12.5303
▁heel	-12.5317
▁8.5	-12.532
▁electrical	-12.5325
▁amphetamines	-12.5338
▁relaxe	-12.5341
▁dragg	-12.5342
▁sto	-12.5354
▁exists	-12.5356
/7	-12.5359
▁labs	-12.536
▁ravenous	-12.5372
/5/##	-12.5395
▁woo	-12.54
▁spe	-12.5402
▁ver	-12.5407
ardi	-12.5411
counter	-12.5418
narcotic	-12.5418
blown	-12.5418
addictive	-12.5418
condom	-12.5418
positive	-12.5418
hopefully	-12.5418
▁che	-12.5419
again	-12.5426
▁residu	-12.5444
▁schedul	-12.5445
▁pale	-12.5448
▁tire	-12.5454
pression	-12.5454
▁gree	-12.5456
▁prompt	-12.5458
▁surprising	-12.5458
▁inhibit	-12.546
▁hernia	-12.5461
▁desogen	-12.5461
▁lorazapam	-12.5461
▁naltrexone	-12.5461
▁norepinephrine	-12.5461
▁pamphlet	-12.5461
▁synthetic	-12.5461
▁tennis	-12.5461
▁bummer	-12.5461
▁illegal	-12.5461
▁reflect	-12.5461
▁runny	-12.5461
▁squeeze	-12.5461
▁circle	-12.5461
▁exceed	-12.5461
▁motor	-12.5461
▁potency	-12.5461
▁reference	-12.5462
▁digestion	-12.5462
▁reconsider	-12.5462
▁replacing	-12.5462
▁ellaone	-12.5463
▁concussion	-12.5463
▁stent	-12.5464
▁herself	-12.5465
▁anorexia	-12.5469
▁bursts	-12.5473
▁camp	-12.5475
▁booster	-12.5479
▁stab	-12.5481
▁fold	-12.5482
▁soak	-12.5484
▁fatal	-12.5485
▁screamed	-12.5486
▁blowing	-12.5486
▁##.4	-12.549
/2/##	-12.5494
▁achieved	-12.5496
▁pointless	-12.5499
▁colors	-12.55
ou	-12.55
▁shocking	-12.5501
▁appearing	-12.5501
▁prayed	-12.5512
▁knots	-12.5516
mos	-12.5524
clean	-12.5526
oooo	-12.5528
gina	-12.5529
▁tin	-12.554
eva	-12.5553
▁stoned	-12.5554
▁opioids	-12.5563
ended	-12.5571
▁mor	-12.5572
▁ski	-12.5573
▁weary	-12.5588
settling	-12.5589
say	-12.5602
ulated	-12.5627
▁zo	-12.5632
▁shirt	-12.5635
board	-12.565
snri	-12.565
buspar	-12.565
cream	-12.5655
▁aka	-12.5656
tial	-12.5657
▁hall	-12.5659
ching	-12.5669
▁distract	-12.5672
▁pot	-12.5675
▁encounter	-12.5684
bar	-12.5685
▁daze	-12.5686
epersonalization	-12.5694
▁abilities	-12.5694
▁arguing	-12.5694
▁arthritic	-12.5694
▁denied	-12.5694
▁desoxyn	-12.5694
▁flexeril	-12.5694
▁impressive	-12.5694
▁incision	-12.5694
▁kindergarten	-12.5694
▁knife	-12.5694
▁midwife	-12.5694
▁moisture	-12.5694
▁muscular	-12.5694
▁relentless	-12.5694
▁tradjenta	-12.5694
▁tweak	-12.5694
▁obtain	-12.5694
▁eleven	-12.5694
▁controllable	-12.5694
▁serzone	-12.5694
▁boring	-12.5694
azole	-12.5695
▁storm	-12.5695
▁manner	-12.5695
▁tmi	-12.5697
▁bitchy	-12.5697
▁apartment	-12.5697
▁diclofenac	-12.5699
▁troublesome	-12.57
▁expired	-12.5701
▁obsession	-12.5702
▁restored	-12.5702
cycline	-12.5703
▁interrupted	-12.5703
▁dissipated	-12.5703
▁skincare	-12.5713
▁decently	-12.5716
▁dots	-12.5717
▁attribut	-12.5717
▁flex	-12.5726
total	-12.5727
/6/##	-12.5729
clin	-12.574
▁headedness	-12.5742
▁intensive	-12.5742
position	-12.5742
▁lifelong	-12.5756
▁sip	-12.5758
▁dip	-12.5765
float	-12.5768
mental	-12.5768
▁books	-12.5785
▁persists	-12.5789
rated	-12.5799
▁funk	-12.5819
rest	-12.5819
▁produces	-12.5826
pal	-12.5833
▁sorted	-12.5834
▁pant	-12.5854
▁derma	-12.5861
▁bounce	-12.5863
▁desired	-12.588
▁vis	-12.5883
bru	-12.5884
front	-12.5888
food	-12.5888
check	-12.5889
restless	-12.5889
aware	-12.5889
chest	-12.5897
▁discover	-12.5926
▁races	-12.5927
▁figur	-12.5929
▁calori	-12.5929
▁sulfa	-12.5932
▁bridge	-12.5932
▁disagree	-12.5932
▁discouraging	-12.5932
▁excedrin	-12.5932
▁fogginess	-12.5932
▁gallstones	-12.5932
▁lactose	-12.5932
▁osteoporosis	-12.5932
▁technically	-12.5932
▁velivet	-12.5932
▁vestura	-12.5932
▁absence	-12.5932
▁emsam	-12.5932
▁tasting	-12.5932
▁bandaid	-12.5932
▁teva	-12.5933
▁haze	-12.5933
▁supportive	-12.5933
▁thoroughly	-12.5934
▁repeatedly	-12.5935
▁impulsiveness	-12.5935
▁schizophrenia	-12.5936
▁bill	-12.5937
▁reco	-12.5938
▁bust	-12.5939
▁crushing	-12.594
takes	-12.5945
▁jumpy	-12.5946
▁tilt	-12.5949
▁rejected	-12.5949
▁cheating	-12.5949
▁migranes	-12.5952
▁honesty	-12.5954
▁adjustments	-12.5956
▁responding	-12.598
▁believer	-12.5982
▁nutrition	-12.5992
▁logical	-12.5999
##-##	-12.6001
▁cooling	-12.6006
▁swapp	-12.6009
send	-12.6013
▁damp	-12.6016
▁apathetic	-12.6018
▁deed	-12.6021
▁blacked	-12.6027
▁soaking	-12.6041
▁straighten	-12.6048
▁pasta	-12.6067
▁grows	-12.607
completing	-12.6088
▁milligram	-12.6107
▁stings	-12.6109
▁thereafter	-12.6111
▁depress	-12.6131
focus	-12.6132
such	-12.6132
flat	-12.6132
makes	-12.6133
seriously	-12.6133
pack	-12.6137
lac	-12.6157
▁dang	-12.6166
▁belief	-12.6176
▁communicate	-12.6176
▁crotch	-12.6176
▁hypnotic	-12.6176
▁klonipin	-12.6176
▁rhythm	-12.6176
▁zopiclone	-12.6176
▁colon	-12.6176
▁dishes	-12.6176
▁distant	-12.6176
▁exciting	-12.6176
▁shelf	-12.6176
▁sink	-12.6176
▁operate	-12.6176
▁facing	-12.6176
▁labia	-12.6176
▁grace	-12.6176
▁rude	-12.6177
ellip	-12.6178
▁housework	-12.6178
▁relation	-12.6179
atory	-12.6184
cider	-12.6186
▁librium	-12.6187
▁city	-12.6188
▁spare	-12.6188
▁5&####;8&	-12.6188
▁role	-12.619
▁fixes	-12.6191
▁buzzing	-12.6195
▁residue	-12.6195
▁south	-12.6201
▁absorbed	-12.6204
own	-12.6205
▁cla	-12.6206
cribed	-12.6209
▁unlikely	-12.6212
▁cookies	-12.6214
▁bang	-12.6217
▁tinie	-12.6227
▁5/##/##	-12.6229
▁lessens	-12.6237
▁tune	-12.6238
▁manufacturers	-12.626
tracted	-12.627
mph	-12.627
▁sufferers	-12.6296
oe	-12.6311
▁noises	-12.632
▁milder	-12.6329
▁fluctuation	-12.6356
▁nsaid	-12.6356
!!!!!!!!	-12.6361
walk	-12.6371
▁raises	-12.6382
menopausal	-12.6382
white	-12.6382
changing	-12.6382
psych	-12.6382
mouth	-12.6382
breakthrough	-12.6382
began	-12.6382
sick	-12.6385
/5	-12.639
mind	-12.639
▁esp	-12.6398
▁collect	-12.6416
▁balloon	-12.6416
▁administer	-12.6416
▁dissipate	-12.6416
tude	-12.6417
▁guilt	-12.6423
▁surge	-12.6424
rage	-12.6425
schizoaffective	-12.6426
▁cheerful	-12.6426
▁disorientation	-12.6426
▁flatulence	-12.6426
▁fluctuating	-12.6426
▁googling	-12.6426
▁literature	-12.6426
▁melasma	-12.6426
▁moderation	-12.6426
▁nodules	-12.6426
▁nonetheless	-12.6426
▁spectrum	-12.6426
▁stream	-12.6426
▁jealous	-12.6426
▁parkinson	-12.6426
▁animal	-12.6426
▁dramamine	-12.6426
▁multivitamin	-12.6426
▁consistency	-12.6426
▁nhs	-12.6426
▁laser	-12.6426
canadian	-12.6426
▁cancelled	-12.6426
▁football	-12.6426
▁toothache	-12.6426
▁master	-12.6426
▁toxicity	-12.6426
▁sixteen	-12.6427
filled	-12.6427
▁trail	-12.6429
▁exhausting	-12.6429
▁utterly	-12.6429
▁deter	-12.643
▁6.2	-12.6431
▁disrupted	-12.6434
▁signal	-12.6436
▁survived	-12.6437
▁delivered	-12.6439
▁retained	-12.6444
▁drier	-12.6447
▁trisprintec	-12.6448
oxycontin	-12.645
▁ple	-12.6451
▁normalized	-12.646
▁conflict	-12.6463
▁risky	-12.6466
▁##,###	-12.6471
▁booked	-12.6478
specially	-12.6479
max	-12.6483
oin	-12.6484
▁shifted	-12.6487
▁pigmentation	-12.65
▁customers	-12.6507
▁fullness	-12.652
▁bras	-12.6522
▁curbing	-12.6524
▁erections	-12.6574
▁blur	-12.6582
▁zap	-12.6584
ently	-12.659
word	-12.6595
▁cy	-12.6596
▁5.5	-12.6609
▁precaution	-12.6612
▁terror	-12.6614
▁nail	-12.6616
change	-12.6622
▁bum	-12.663
▁handed	-12.6634
crazy	-12.6639
between	-12.6639
angry	-12.6639
march	-12.6639
ka	-12.6644
bull	-12.6654
fine	-12.6656
rays	-12.6661
migraines	-12.6663
▁thinne	-12.6671
▁caps	-12.6672
▁stumbl	-12.6672
▁engage	-12.6673
▁corner	-12.6676
▁literal	-12.6679
▁continual	-12.6679
iatric	-12.6679
▁amplified	-12.6682
▁azurette	-12.6682
▁cessation	-12.6682
▁dermatitis	-12.6682
▁exaggerating	-12.6682
▁explosive	-12.6682
▁incorporate	-12.6682
▁invented	-12.6682
▁lunatic	-12.6682
▁malaise	-12.6682
▁repetitive	-12.6682
▁serving	-12.6682
▁stabilise	-12.6682
▁symbyax	-12.6682
▁vaseline	-12.6682
▁wrinkles	-12.6682
▁zumba	-12.6682
▁shelves	-12.6682
▁clammy	-12.6682
▁golf	-12.6682
▁wander	-12.6682
▁dawn	-12.6682
▁wreak	-12.6682
▁bilateral	-12.6682
▁defect	-12.6683
▁sporadically	-12.6683
▁socializing	-12.6684
▁penis	-12.6685
▁persevere	-12.6685
yikes	-12.6686
▁exacerbate	-12.6687
▁dysthymia	-12.6689
pounds	-12.6689
▁magically	-12.669
▁lesser	-12.6691
▁gna	-12.6692
ramped	-12.6692
▁twist	-12.6693
▁assistant	-12.6709
▁midday	-12.671
oph	-12.671
▁simplest	-12.6712
ural	-12.6723
▁1.##	-12.6739
▁phases	-12.6761
▁cleaner	-12.6762
cycle	-12.6771
▁strip	-12.6778
▁withdrawls	-12.678
▁cop	-12.6791
actic	-12.6795
ball	-12.6801
▁dial	-12.6804
▁sha	-12.6821
zing	-12.6824
▁regrett	-12.6831
star	-12.6835
wk	-12.6842
ously	-12.6853
▁contract	-12.6856
▁detail	-12.6866
renal	-12.6866
▁participate	-12.6873
▁painkiller	-12.6876
▁lifeless	-12.6876
ovi	-12.6883
power	-12.6885
hot	-12.6899
hope	-12.69
therapy	-12.6902
originally	-12.6902
zombie	-12.6902
people	-12.6902
sorry	-12.6902
significant	-12.6902
based	-12.6902
tender	-12.6902
pds	-12.6903
waiting	-12.6909
▁relie	-12.6909
aside	-12.6924
▁interrupt	-12.6928
▁outbreak	-12.6933
▁prostate	-12.6933
▁scab	-12.6941
▁chunk	-12.6943
guinea	-12.6945
▁acknowledge	-12.6945
▁acupuncture	-12.6945
▁akathesia	-12.6945
▁dementia	-12.6945
▁destructive	-12.6945
▁diarrhoea	-12.6945
▁elliptical	-12.6945
▁frozen	-12.6945
▁guanfacine	-12.6945
▁identical	-12.6945
▁menstruating	-12.6945
▁modafinil	-12.6945
▁norethindrone	-12.6945
▁shoes	-12.6945
▁understatement	-12.6945
▁undesirable	-12.6945
▁valsartan	-12.6945
▁vicious	-12.6945
▁narrow	-12.6946
▁rescue	-12.6946
▁stain	-12.6946
▁absent	-12.6946
▁jolt	-12.6946
phasic	-12.6946
▁singing	-12.6946
▁twinge	-12.6946
▁dilation	-12.6946
▁chemo	-12.6946
▁chips	-12.6946
▁peanut	-12.6946
▁creating	-12.6946
▁loloestrin	-12.6948
▁gun	-12.6948
▁vital	-12.6949
▁fused	-12.6955
▁hp	-12.6955
▁stumbled	-12.6956
anger	-12.6964
▁predicted	-12.6964
▁dressed	-12.6964
▁jog	-12.6966
▁existed	-12.6966
-##-####	-12.6967
▁melted	-12.6967
▁stink	-12.6971
shot	-12.6975
▁mellowed	-12.6978
▁sales	-12.6981
▁abnormally	-12.6981
kind	-12.6986
▁transitioning	-12.6987
▁dare	-12.6989
▁shave	-12.6991
▁intolerance	-12.6993
▁involve	-12.6998
▁stretching	-12.7
▁bull	-12.7
▁sep	-12.7006
▁sum	-12.7009
▁riding	-12.7012
/3	-12.7014
▁filling	-12.7019
▁reporting	-12.7056
▁dar	-12.7062
▁claims	-12.7062
▁bg	-12.7068
▁imagined	-12.7074
ask	-12.7086
lex	-12.7088
static	-12.7102
onal	-12.7145
edge	-12.7145
▁cigarette	-12.7146
▁undergo	-12.716
suffer	-12.7162
hangover	-12.7172
mainly	-12.7172
lithium	-12.7172
stopped	-12.7174
completely	-12.7174
▁anticipat	-12.7205
▁enhance	-12.7206
▁discourage	-12.7206
▁unsuccessful	-12.7212
▁subsequent	-12.7212
▁academic	-12.7215
▁flo	-12.7215
zapam	-12.7216
▁unacceptable	-12.7216
achieving	-12.7216
▁artificial	-12.7216
▁biopsy	-12.7216
▁carbohydrate	-12.7216
▁colleague	-12.7216
▁doxylamine	-12.7216
▁encouraging	-12.7216
▁honeymoon	-12.7216
▁material	-12.7216
▁pancreas	-12.7216
▁paracetamol	-12.7216
▁police	-12.7216
▁purchasing	-12.7216
▁rheumatologist	-12.7216
▁satisfy	-12.7216
▁stimulating	-12.7216
▁unbearably	-12.7216
▁vagisil	-12.7216
▁bank	-12.7216
▁behold	-12.7216
▁zipsor	-12.7216
▁blanket	-12.7216
▁discontinuation	-12.7216
▁brittle	-12.7216
▁expelled	-12.7216
▁bulge	-12.7216
▁remission	-12.7216
▁mirt	-12.7216
▁reflex	-12.7216
▁dripping	-12.7217
▁roommate	-12.7217
▁cash	-12.7217
▁dermo	-12.7218
▁carbonated	-12.7219
▁pool	-12.7219
▁strangers	-12.722
▁brick	-12.7221
▁proceeded	-12.7225
▁disturbed	-12.7229
▁lengthy	-12.723
▁claimed	-12.7233
▁hairline	-12.7233
▁awakened	-12.7234
▁demanding	-12.7234
▁ec	-12.7238
cum	-12.7248
▁performed	-12.7251
▁contained	-12.7257
fen	-12.7274
▁precautions	-12.729
▁definet	-12.73
▁overtime	-12.7302
▁wrecked	-12.7315
▁-###	-12.7317
▁peed	-12.7319
▁operations	-12.7329
▁stuffy	-12.7348
▁veg	-12.7348
headedness	-12.7348
▁cells	-12.736
▁reward	-12.7363
▁gal	-12.7416
!!!!!!!!!	-12.7418
▁instruction	-12.7424
▁qua	-12.7435
▁generalise	-12.7441
possibly	-12.745
remeron	-12.745
fantastic	-12.745
brown	-12.745
fatigue	-12.745
skyla	-12.745
iatrist	-12.7451
four	-12.7452
manic	-12.7453
fall	-12.7464
▁clench	-12.7472
▁gastro	-12.7483
▁indicate	-12.7484
▁rocket	-12.7484
fix	-12.7485
▁moisturise	-12.7487
▁extrem	-12.7489
▁utter	-12.749
▁anorexic	-12.7494
▁ceiling	-12.7494
▁cocaine	-12.7494
▁correlation	-12.7494
▁cytotec	-12.7494
▁education	-12.7494
▁enthusiasm	-12.7494
▁excitement	-12.7494
▁fortune	-12.7494
▁hashimoto	-12.7494
▁levlen	-12.7494
▁mountain	-12.7494
▁nagging	-12.7494
▁newlywed	-12.7494
▁responsibly	-12.7494
▁slurred	-12.7494
▁suppositories	-12.7494
▁thorac	-12.7494
▁tresiba	-12.7494
▁unnoticeable	-12.7494
▁volume	-12.7494
▁equate	-12.7494
▁compression	-12.7494
▁lyme	-12.7494
▁douche	-12.7494
▁hydrate	-12.7494
ada	-12.7495
▁erupt	-12.7497
▁disruption	-12.7497
▁shove	-12.7497
▁scaledown	-12.7497
planon	-12.7497
▁coma	-12.7498
▁reviewer	-12.7499
▁exceptionally	-12.7499
▁consecutive	-12.7499
▁brace	-12.75
▁alertness	-12.7501
▁consideration	-12.7501
hard	-12.7503
normally	-12.7503
▁tightening	-12.7503
▁clenched	-12.7504
▁##/##.5	-12.7505
▁diva	-12.7507
wasn	-12.751
▁weaker	-12.7516
▁wellbeing	-12.7526
▁presentation	-12.7529
▁blogs	-12.753
▁raced	-12.7533
▁poisoning	-12.7543
▁smoked	-12.7546
▁prayers	-12.756
▁strangely	-12.7569
▁clearest	-12.7587
xday	-12.7589
▁helpless	-12.7613
/6	-12.7623
ccu	-12.763
come	-12.7661
▁calmly	-12.7662
rush	-12.7665
▁rules	-12.7666
▁prep	-12.7691
▁brave	-12.7697
;3	-12.772
natural	-12.7735
found	-12.7735
depakote	-12.7735
gabapentin	-12.7736
medicine	-12.7736
need	-12.7737
▁backache	-12.7749
genic	-12.7754
fri	-12.7756
paired	-12.776
▁blam	-12.7764
▁flutter	-12.7768
▁breastfeed	-12.7768
▁proceed	-12.7769
▁design	-12.7769
▁associate	-12.777
▁cease	-12.7771
▁foam	-12.7774
▁enormous	-12.7776
▁takin	-12.7778
▁heave	-12.7779
▁virgin	-12.7779
mitrex	-12.7779
▁believing	-12.7779
▁blotchy	-12.7779
▁dalmane	-12.7779
▁deficit	-12.7779
▁doubling	-12.7779
▁genital	-12.7779
▁grilled	-12.7779
▁hereditary	-12.7779
▁hypoglycemia	-12.7779
▁ligament	-12.7779
▁memories	-12.7779
▁perception	-12.7779
▁productivity	-12.7779
▁ramipril	-12.7779
▁reappear	-12.7779
▁sauce	-12.7779
▁science	-12.7779
▁status	-12.7779
▁:-(	-12.7779
▁creme	-12.7779
▁premature	-12.7779
▁nonsense	-12.7779
▁ordeal	-12.7779
▁dopey	-12.7779
▁bummed	-12.7779
▁transfusion	-12.7779
▁isolation	-12.7779
▁stimulate	-12.7779
▁tomato	-12.7779
cylen	-12.7779
▁rising	-12.7779
▁prison	-12.7779
▁mindset	-12.7779
▁gently	-12.778
▁radical	-12.778
▁bomb	-12.778
▁rsd	-12.778
▁bandage	-12.778
▁healthily	-12.778
▁concept	-12.778
▁measurement	-12.778
▁offset	-12.7781
▁hysterically	-12.7782
▁sunlight	-12.7782
▁diary	-12.7782
▁###.7	-12.7784
▁educated	-12.7784
▁icu	-12.7784
neuropathic	-12.7784
▁impaired	-12.7788
▁attentive	-12.7788
▁rationally	-12.7788
▁authorization	-12.7789
▁microgynon	-12.7789
▁agent	-12.7794
▁appealing	-12.7795
▁claiming	-12.7799
▁chemically	-12.78
▁slide	-12.7806
▁overdrive	-12.7809
▁gag	-12.7823
▁apt	-12.7826
carb	-12.7829
▁breaker	-12.7831
▁organs	-12.7832
▁san	-12.7835
▁handy	-12.7837
teen	-12.7837
▁core	-12.7843
know	-12.7845
▁commenting	-12.7857
▁shirts	-12.7866
▁shin	-12.7883
▁restor	-12.7906
▁rave	-12.7947
▁kn	-12.7956
ette	-12.7972
extra	-12.7982
chin	-12.8001
estrin	-12.8006
▁knot	-12.8008
▁tap	-12.802
▁rap	-12.8027
citalopram	-12.8029
purge	-12.8029
amphetamine	-12.8029
sweet	-12.803
percocet	-12.803
trazodone	-12.803
constipation	-12.803
broke	-12.803
stomach	-12.803
follow	-12.803
build	-12.803
losing	-12.803
fertile	-12.803
chronic	-12.803
perfect	-12.803
black	-12.803
cramping	-12.8031
phone	-12.8037
level	-12.8038
ak	-12.804
hurt	-12.8041
highly	-12.8052
▁crowd	-12.8055
▁requir	-12.8059
▁vanish	-12.8063
▁restrict	-12.8073
▁hypothyroid	-12.8073
▁african	-12.8073
linyah	-12.8073
▁blade	-12.8073
▁carbamazepine	-12.8073
▁category	-12.8073
▁counselling	-12.8073
▁daydreaming	-12.8073
▁discipline	-12.8073
▁errands	-12.8073
▁grouchy	-12.8073
▁intimacy	-12.8073
▁ligation	-12.8073
▁marvelon	-12.8073
▁nexaplon	-12.8073
▁sedentary	-12.8073
▁supervision	-12.8073
▁techniques	-12.8073
▁toujeo	-12.8073
▁traffic	-12.8073
▁viibyrd	-12.8073
▁document	-12.8073
▁frantic	-12.8073
▁description	-12.8073
▁bleach	-12.8073
▁menses	-12.8073
▁inderal	-12.8073
▁saliva	-12.8073
▁choking	-12.8073
▁flood	-12.8074
▁reveal	-12.8074
▁temperament	-12.8074
▁escape	-12.8074
▁gloom	-12.8074
▁rubbed	-12.8074
▁lotrel	-12.8074
▁contrary	-12.8074
▁miscarried	-12.8074
▁mydayis	-12.8074
▁sulfate	-12.8074
▁uneasy	-12.8074
▁commitment	-12.8074
▁cns	-12.8074
▁fitbit	-12.8074
▁tech	-12.8074
▁paleo	-12.8074
▁harmful	-12.8075
▁crystal	-12.8075
▁invega	-12.8075
▁nodes	-12.8076
mmol	-12.8077
▁glimepiride	-12.8077
▁tossed	-12.8077
▁subsequently	-12.8077
▁dna	-12.8078
▁consultation	-12.8079
▁efficiently	-12.8079
▁attached	-12.808
▁enjoyment	-12.8081
▁slap	-12.8082
▁secure	-12.8083
▁teary	-12.8086
ending	-12.8092
▁minimized	-12.8099
▁invest	-12.8102
▁clamped	-12.8102
▁brushing	-12.8107
▁blocked	-12.8111
▁blocking	-12.8112
hair	-12.8121
▁hy	-12.8124
▁colored	-12.8124
▁dizzyness	-12.8133
▁wishes	-12.8146
your	-12.8146
▁curse	-12.8149
▁nauseousness	-12.8157
▁curv	-12.8159
▁doze	-12.8164
zapine	-12.8177
▁fluctuates	-12.818
▁cute	-12.8184
▁irrat	-12.8194
/7/##	-12.8195
▁hype	-12.8197
▁pd	-12.8202
served	-12.8204
▁hormonally	-12.8235
▁cho	-12.8235
nite	-12.8241
▁manufactur	-12.8247
cap	-12.8283
hand	-12.8288
▁involv	-12.8295
evaluate	-12.8306
▁nipple	-12.8307
▁prayer	-12.8317
yeah	-12.8333
stupid	-12.8333
girl	-12.8333
withdrawal	-12.8333
yesterday	-12.8333
prior	-12.8333
kick	-12.8333
occasional	-12.8333
personally	-12.8335
fire	-12.8336
needed	-12.8343
trial	-12.8346
fusion	-12.8351
▁refus	-12.8362
contrave	-12.8367
▁topic	-12.8374
▁adderral	-12.8375
hyperventilating	-12.8376
▁accompany	-12.8376
▁administration	-12.8376
▁aggravating	-12.8376
▁amnesia	-12.8376
▁assignment	-12.8376
▁benedryl	-12.8376
▁bronchitis	-12.8376
▁bulimia	-12.8376
▁crippled	-12.8376
▁homeopathic	-12.8376
▁intractable	-12.8376
▁lawsuit	-12.8376
▁lubricant	-12.8376
▁phendimetrazine	-12.8376
▁pseudo	-12.8376
▁pustules	-12.8376
▁reccommend	-12.8376
▁sacrifice	-12.8376
▁sprain	-12.8376
▁stimulator	-12.8376
▁susceptible	-12.8376
▁vaginitis	-12.8376
▁vegetarian	-12.8376
▁victim	-12.8376
▁elated	-12.8376
▁murder	-12.8376
▁ambition	-12.8376
▁autoimmune	-12.8376
▁retail	-12.8376
▁mutation	-12.8376
▁extremities	-12.8376
▁spark	-12.8377
▁adhere	-12.8377
▁iffy	-12.8377
▁baseline	-12.8377
▁rope	-12.8377
▁halt	-12.8378
▁preparation	-12.8378
▁satan	-12.8381
▁involuntar	-12.8381
▁meantime	-12.8382
▁vomitting	-12.8383
▁crashes	-12.8384
▁wax	-12.8385
▁7.1	-12.8388
surg	-12.8389
▁levelle	-12.839
▁mobility	-12.8391
▁hateful	-12.8392
chlor	-12.8393
wn	-12.8393
▁outstanding	-12.8396
▁diminishing	-12.8403
hands	-12.8404
none	-12.8407
▁safest	-12.843
bc	-12.8438
▁gold	-12.8448
▁income	-12.8458
▁.1	-12.8482
/3/##	-12.8501
spot	-12.8536
▁zip	-12.8537
▁mod	-12.8541
activ	-12.8554
▁chat	-12.859
arms	-12.8591
▁usa	-12.8616
▁thumb	-12.862
▁outburst	-12.862
came	-12.8623
gel	-12.8626
▁vein	-12.8631
lease	-12.8639
lunesta	-12.8645
developed	-12.8645
worth	-12.8645
activity	-12.8645
easy	-12.8646
fog	-12.8647
release	-12.8648
five	-12.8651
shoulder	-12.8657
▁disrupt	-12.8675
▁expire	-12.8679
▁abscess	-12.8689
▁guide	-12.8689
▁abusive	-12.8689
▁amoxicillin	-12.8689
▁banned	-12.8689
▁benzodiazapine	-12.8689
▁camila	-12.8689
▁candidate	-12.8689
▁capacity	-12.8689
▁central	-12.8689
▁compulsion	-12.8689
▁craziness	-12.8689
▁deprivation	-12.8689
▁dilauded	-12.8689
▁embeda	-12.8689
▁embedded	-12.8689
▁europe	-12.8689
▁evekeo	-12.8689
▁exaggeration	-12.8689
▁exposure	-12.8689
▁fellow	-12.8689
▁humor	-12.8689
▁installed	-12.8689
▁mibelas	-12.8689
▁miserably	-12.8689
▁nexplannon	-12.8689
▁opportunity	-12.8689
▁oxymorphone	-12.8689
▁prescibed	-12.8689
▁prominent	-12.8689
▁protocol	-12.8689
▁refreshing	-12.8689
▁soccer	-12.8689
▁tanzeum	-12.8689
▁veteran	-12.8689
▁idiot	-12.8689
▁realistic	-12.8689
▁desert	-12.8689
▁motorcycle	-12.8689
▁burden	-12.8689
▁elementary	-12.8689
▁temples	-12.8689
▁pepsi	-12.8689
▁reinserted	-12.869
▁(2-3	-12.869
▁coincid	-12.869
▁film	-12.869
▁items	-12.869
▁vertebrae	-12.869
▁suitable	-12.8691
▁splitting	-12.8691
▁###-###/##-##	-12.8692
▁extraction	-12.8696
▁softer	-12.8697
apri	-12.8702
▁7.8	-12.8708
existant	-12.8708
▁receptors	-12.8724
▁6.8	-12.8725
▁6.3	-12.8732
▁estrin	-12.8736
many	-12.874
ature	-12.8747
▁spurs	-12.8753
▁bur	-12.8762
lots	-12.8771
▁mommy	-12.8782
ency	-12.8793
lop	-12.8809
pop	-12.882
▁radiat	-12.8867
patient	-12.8891
levo	-12.8899
▁gro	-12.8903
ronic	-12.8928
-8	-12.894
▁identif	-12.8942
ancy	-12.8955
lose	-12.8967
clonazepam	-12.8968
ritalin	-12.8968
valium	-12.8968
viibryd	-12.8968
yasmin	-12.8968
july	-12.8968
latuda	-12.8968
phentermine	-12.8968
insurance	-12.8968
proof	-12.8971
experienced	-12.8972
unlike	-12.8976
verse	-12.8976
▁radiate	-12.899
▁crush	-12.8992
drop	-12.8993
▁tru	-12.8997
▁tolerat	-12.9005
fic	-12.9009
▁physio	-12.9009
▁dirt	-12.9009
▁arrhythmia	-12.9011
▁autism	-12.9011
▁comparing	-12.9011
▁escalate	-12.9011
▁estradiol	-12.9011
▁increments	-12.9011
▁industry	-12.9011
▁interval	-12.9011
▁intolerant	-12.9011
▁legitimate	-12.9011
▁neighbor	-12.9011
▁nosebleeds	-12.9011
▁oatmeal	-12.9011
▁pronounced	-12.9011
▁referral	-12.9011
▁shook	-12.9011
▁strep	-12.9011
▁tenormin	-12.9011
▁sleeve	-12.9011
▁organization	-12.9012
▁goodbye	-12.9012
▁disappointment	-12.9012
▁emerg	-12.9012
▁medicaid	-12.9012
▁writh	-12.9012
▁armpit	-12.9012
working	-12.9012
fungal	-12.9012
▁fuel	-12.9012
▁stressors	-12.9012
▁sincerely	-12.9012
▁sym	-12.9012
vascul	-12.9012
▁requirement	-12.9013
▁biking	-12.9013
▁owe	-12.9013
▁feverish	-12.9014
▁insight	-12.9014
▁lint	-12.9015
▁flatten	-12.9015
▁exceptional	-12.9015
▁diphenhydramine	-12.9017
▁tail	-12.9017
▁corners	-12.9019
▁attest	-12.9021
▁stomachache	-12.9021
▁hydrat	-12.9023
▁cow	-12.9023
▁5/6	-12.9025
circ	-12.9025
sistant	-12.9028
▁awareness	-12.9031
▁welcomed	-12.9031
▁shakey	-12.9034
▁6.1	-12.9035
▁carp	-12.9039
▁deadly	-12.9042
▁slo	-12.9045
▁repeated	-12.9051
▁labeled	-12.9051
▁processes	-12.9054
▁fastest	-12.9055
contra	-12.9058
▁dear	-12.9067
▁practic	-12.9083
▁inpatient	-12.9087
▁bathing	-12.9096
▁bb	-12.9101
▁systemic	-12.9109
▁tid	-12.9121
lix	-12.9128
▁tact	-12.9134
▁tighten	-12.9135
▁breakup	-12.9137
lash	-12.9161
erior	-12.9207
▁argument	-12.9275
▁whitehead	-12.9277
partum	-12.9301
present	-12.9301
geodon	-12.9301
compared	-12.9301
monistat	-12.9301
huge	-12.9301
sexual	-12.9301
drink	-12.9301
general	-12.9301
escitalopram	-12.9302
tampon	-12.9305
▁blast	-12.9329
ugging	-12.9341
trigeminal	-12.9345
▁absurd	-12.9345
▁balancing	-12.9345
▁compliant	-12.9345
▁deficiency	-12.9345
▁disabling	-12.9345
▁falmina	-12.9345
▁fidgety	-12.9345
▁flaring	-12.9345
▁flashbacks	-12.9345
▁hyzaar	-12.9345
▁invasive	-12.9345
▁mirtazipine	-12.9345
▁onglyza	-12.9345
▁rotten	-12.9345
▁sclerosis	-12.9345
▁security	-12.9345
▁shattered	-12.9345
▁shivering	-12.9345
▁staff	-12.9345
▁stimulation	-12.9345
▁transformed	-12.9345
▁unfocused	-12.9345
▁valerian	-12.9345
▁fashion	-12.9345
▁refund	-12.9345
▁vigorous	-12.9345
▁lonely	-12.9345
▁nutritionist	-12.9345
▁amnesteem	-12.9345
▁amaryl	-12.9345
▁debate	-12.9345
▁inevitable	-12.9345
▁existence	-12.9345
▁floating	-12.9345
▁semen	-12.9345
▁healthiest	-12.9345
▁stint	-12.9345
▁premenstrual	-12.9345
emeber	-12.9348
▁prick	-12.9349
▁located	-12.9349
kote	-12.935
▁reactive	-12.9351
▁download	-12.9351
putation	-12.9355
▁pinches	-12.936
hill	-12.9361
▁bake	-12.9362
▁##.7	-12.9363
searched	-12.9365
▁chilled	-12.9368
tensio	-12.9372
▁cooked	-12.9372
▁experimenting	-12.9377
▁aspergers	-12.9382
tensive	-12.9383
zoned	-12.9384
▁stupidly	-12.9386
▁distractions	-12.9389
▁4/##/####	-12.9398
▁witch	-12.9398
rrrr	-12.9403
▁eg	-12.9407
▁valve	-12.9408
▁rocking	-12.9409
▁radi	-12.9418
prim	-12.9419
antly	-12.9436
▁contr	-12.9441
▁bleeder	-12.9447
oxid	-12.945
▁soooooo	-12.9466
gone	-12.9502
rch	-12.9518
▁wane	-12.9526
bone	-12.953
sigh	-12.9533
▁orthotricyclen	-12.959
▁tie	-12.9614
▁spur	-12.9622
wanted	-12.9645
alprazolam	-12.9646
combined	-12.9646
muscle	-12.9646
september	-12.9646
basically	-12.9646
january	-12.9646
october	-12.9646
increased	-12.9646
saved	-12.9646
mania	-12.9646
capable	-12.9646
spotted	-12.9646
kept	-12.9649
medicated	-12.965
given	-12.9653
▁verse	-12.9655
lite	-12.9668
forming	-12.9669
ripping	-12.9673
▁register	-12.968
trying	-12.9684
▁thorough	-12.9686
▁profuse	-12.9686
▁yuck	-12.9687
▁fuzz	-12.9687
▁basket	-12.969
buproprion	-12.969
responsibilities	-12.969
▁adjunct	-12.969
▁alzheimer	-12.969
▁anxiolytic	-12.969
▁cherry	-12.969
▁client	-12.969
▁component	-12.969
▁glyburide	-12.969
▁guidelines	-12.969
▁hobbies	-12.969
▁joking	-12.969
▁mircette	-12.969
▁optimal	-12.969
▁recollection	-12.969
▁satisfaction	-12.969
▁strenuous	-12.969
▁survivor	-12.969
▁therapies	-12.969
▁thirties	-12.969
▁transplant	-12.969
▁voucher	-12.969
▁conceal	-12.969
▁endocet	-12.969
▁garden	-12.969
▁rumination	-12.969
▁easing	-12.969
▁friendships	-12.969
▁hectic	-12.969
▁soothing	-12.969
▁steam	-12.969
▁chemotherapy	-12.969
▁jogging	-12.969
▁psychotherapy	-12.969
▁dissociation	-12.969
▁wrapped	-12.969
▁unemployed	-12.969
▁grams	-12.969
▁serum	-12.9691
▁digest	-12.9691
▁retinoid	-12.9691
▁camper	-12.9692
▁concluded	-12.9692
▁plunger	-12.9694
▁wacky	-12.9696
▁dismissed	-12.9696
▁meanwhile	-12.9696
▁6.4	-12.9696
▁detailed	-12.9703
▁perfection	-12.9709
▁resisted	-12.971
▁admittedly	-12.971
▁cheated	-12.9711
▁altering	-12.9712
▁careless	-12.9719
▁drawing	-12.9721
▁scored	-12.9722
▁moly	-12.9723
haven	-12.9723
▁rich	-12.9727
▁tank	-12.973
▁bursting	-12.9749
▁lightening	-12.9751
▁seventh	-12.9763
pending	-12.9763
!!!!!!!!!!!!!!	-12.9779
nel	-12.9783
dular	-12.9803
▁wb	-12.9813
round	-12.9826
▁manufacture	-12.9832
▁anxi	-12.9838
gist	-12.9851
sacr	-12.9861
ival	-12.9872
▁ware	-12.9875
aka	-12.9919
pound	-12.9933
headache	-12.9934
▁maniac	-12.9955
▁relive	-12.9958
▁rotate	-12.9967
point	-12.998
▁prefill	-12.9991
solodyn	-13.0003
lortab	-13.0003
accident	-13.0003
problem	-13.0003
belviq	-13.0003
norco	-13.0003
recommend	-13.0003
pull	-13.0003
allergic	-13.0003
clock	-13.0003
previously	-13.0004
third	-13.0006
hence	-13.0006
walking	-13.0007
inserted	-13.001
▁convinc	-13.0029
▁prepar	-13.0029
▁grind	-13.0036
▁plummet	-13.0037
▁sustain	-13.0037
▁organize	-13.0037
▁extend	-13.0038
▁fuse	-13.0039
▁photo	-13.0044
narcolepsy	-13.0047
ogestrel	-13.0047
▁acquire	-13.0047
▁acutane	-13.0047
▁ailments	-13.0047
▁amethia	-13.0047
▁anaesthetic	-13.0047
▁cellulite	-13.0047
▁crabby	-13.0047
▁crucial	-13.0047
▁describing	-13.0047
▁edarbi	-13.0047
▁eighteen	-13.0047
▁emptiness	-13.0047
▁eradicate	-13.0047
▁exalgo	-13.0047
▁hurry	-13.0047
▁lecture	-13.0047
▁panoxyl	-13.0047
▁phosphate	-13.0047
▁puncture	-13.0047
▁suspicious	-13.0047
▁tendinitis	-13.0047
▁vicoden	-13.0047
▁wheelchair	-13.0047
▁compensat	-13.0047
▁distinct	-13.0047
▁dyskinesia	-13.0047
▁echo	-13.0047
▁hump	-13.0047
▁prohibitive	-13.0047
▁pvc	-13.0047
▁recreational	-13.0047
▁resembl	-13.0047
▁critical	-13.0047
▁jitteriness	-13.0047
▁psoriasis	-13.0047
▁laziness	-13.0047
▁drool	-13.0047
▁cheers	-13.0047
▁plantar	-13.0047
▁atkins	-13.0047
▁recurrence	-13.0047
▁scene	-13.0047
▁flag	-13.0048
▁1.5-2	-13.0048
▁judgement	-13.0048
▁facility	-13.0048
▁terr	-13.0049
▁dirty	-13.005
▁8.4	-13.005
▁oiliness	-13.005
▁antisocial	-13.0051
▁drawn	-13.0055
▁herbs	-13.006
▁fluttering	-13.0061
▁ballooned	-13.0061
▁handling	-13.0063
▁discussion	-13.0063
▁distracting	-13.0064
stick	-13.0067
▁relapsed	-13.0071
room	-13.0071
▁irrationally	-13.0071
▁irregularity	-13.0072
▁draining	-13.0076
▁normalize	-13.0076
mean	-13.0077
▁(##.5	-13.0078
▁softened	-13.0086
natal	-13.0097
▁massively	-13.01
▁swallowed	-13.0102
▁harming	-13.0107
▁albe	-13.0111
azepam	-13.0117
cardia	-13.0126
▁starch	-13.0133
▁brow	-13.0162
dermal	-13.0172
▁chap	-13.0208
▁bubble	-13.0215
▁pile	-13.0224
each	-13.0231
uous	-13.0234
▁ov	-13.0254
▁cyc	-13.0265
rare	-13.0276
ugged	-13.0296
▁loo	-13.0297
preface	-13.0333
locked	-13.0338
prol	-13.0342
▁tier	-13.0342
▁boob	-13.0348
arlie	-13.0352
fill	-13.0364
health	-13.0371
giving	-13.0373
friend	-13.0373
label	-13.0373
warning	-13.0373
simply	-13.0373
thankfully	-13.0373
depressive	-13.0373
breast	-13.0373
instead	-13.0373
hyper	-13.0374
minus	-13.0378
prone	-13.038
igned	-13.0388
trau	-13.0397
▁rupture	-13.0407
ization	-13.0415
▁bliss	-13.0417
responsive	-13.0417
▁abroad	-13.0417
▁abstinence	-13.0417
▁acidophilus	-13.0417
▁arousal	-13.0417
▁channel	-13.0417
▁church	-13.0417
▁crutch	-13.0417
▁dessert	-13.0417
▁determination	-13.0417
▁exfoliate	-13.0417
▁exponentially	-13.0417
▁guidance	-13.0417
▁hesitation	-13.0417
▁impotence	-13.0417
▁remedied	-13.0417
▁stamina	-13.0417
▁sunshine	-13.0417
▁uninterrupted	-13.0417
▁actavis	-13.0417
▁aveeno	-13.0417
▁buttocks	-13.0417
▁collapse	-13.0417
▁drugstore	-13.0417
▁incontinence	-13.0417
▁interview	-13.0417
▁sublingual	-13.0417
▁tourette	-13.0417
▁brisk	-13.0417
▁spider	-13.0417
▁petrified	-13.0417
▁overthinking	-13.0417
▁flame	-13.0417
▁dvt	-13.0417
▁birds	-13.0417
▁welts	-13.0417
▁retir	-13.0417
▁community	-13.0417
▁paperwork	-13.0418
▁pepto	-13.0418
▁oxygen	-13.0418
raving	-13.0418
▁winner	-13.0418
▁evaluation	-13.0418
▁rite	-13.0418
▁#4	-13.0418
▁accomplishment	-13.0418
▁intact	-13.042
▁6.7	-13.042
▁unsuccessfully	-13.0422
▁relaxant	-13.0423
▁gw	-13.0423
▁financially	-13.0424
isplaced	-13.0426
▁miraculously	-13.0426
▁overload	-13.0428
▁rain	-13.0429
▁levonorgestrel	-13.043
▁5-8	-13.0431
▁freeway	-13.0431
▁station	-13.0431
▁internally	-13.0432
▁cage	-13.0433
▁poked	-13.0438
▁bending	-13.0453
▁syn	-13.0468
▁comforting	-13.0476
▁supress	-13.0509
▁thicken	-13.0559
▁peach	-13.056
flow	-13.0605
▁lev	-13.0638
▁mac	-13.0662
▁gyne	-13.0668
▁mr	-13.0688
▁organ	-13.0698
▁effe	-13.0707
▁hundred	-13.0732
mart	-13.0739
venlafaxine	-13.075
▁twin	-13.0753
school	-13.0753
comfort	-13.0758
shock	-13.0758
methadone	-13.0758
zyprexa	-13.0758
fingers	-13.0758
ptsd	-13.0758
strattera	-13.0758
adipex	-13.0758
december	-13.0758
beware	-13.0758
baby	-13.0759
moodiness	-13.0759
small	-13.0764
live	-13.0768
talk	-13.078
▁sedate	-13.0792
▁genuine	-13.0798
▁microgesti	-13.0799
▁glycol	-13.0802
▁adzenys	-13.0802
▁cabinet	-13.0802
▁carvedilol	-13.0802
▁clonazapam	-13.0802
▁cogentin	-13.0802
▁congestion	-13.0802
▁damaging	-13.0802
▁dandruff	-13.0802
▁degenerate	-13.0802
▁delighted	-13.0802
▁elderly	-13.0802
▁emergencies	-13.0802
▁evident	-13.0802
▁lybrel	-13.0802
▁mortified	-13.0802
▁mosquito	-13.0802
▁mucous	-13.0802
▁nutrients	-13.0802
▁quasense	-13.0802
▁retrospect	-13.0802
▁sensible	-13.0802
▁skull	-13.0802
▁statistic	-13.0802
▁steel	-13.0802
▁stitches	-13.0802
▁tremble	-13.0802
▁vienva	-13.0802
▁zombified	-13.0802
▁aversion	-13.0802
▁conquer	-13.0802
▁kiss	-13.0802
▁femcon	-13.0802
▁avaine	-13.0802
▁arrest	-13.0802
▁slump	-13.0802
▁tendonitis	-13.0802
▁lessina	-13.0802
▁arise	-13.0802
▁bicycle	-13.0802
▁vague	-13.0802
▁hazy	-13.0803
▁dystonia	-13.0803
▁unexplainable	-13.0803
▁accountable	-13.0803
▁oval	-13.0803
▁clinda	-13.0803
▁overreact	-13.0804
▁verbally	-13.0804
▁yucky	-13.0805
▁jab	-13.0805
▁wherever	-13.0805
▁fries	-13.0805
▁hover	-13.0807
▁angle	-13.0808
▁promoted	-13.0809
ocd	-13.081
▁endep	-13.0811
▁extracted	-13.0812
▁reply	-13.0813
▁psychologically	-13.0815
mycin	-13.0817
▁speedy	-13.0819
▁adore	-13.0821
▁alas	-13.0822
▁loosen	-13.0826
▁conceived	-13.0832
▁chronically	-13.0838
▁detoxing	-13.0844
▁4-7	-13.0844
▁regularity	-13.0845
flex	-13.0847
▁pep	-13.0855
▁moral	-13.0878
aug	-13.0946
rating	-13.1013
▁expel	-13.1041
▁pharm	-13.1048
standing	-13.113
▁dollar	-13.1133
should	-13.1143
terine	-13.1145
wait	-13.1147
switch	-13.1153
personal	-13.1154
usual	-13.1155
wonder	-13.1158
vitamin	-13.1158
crash	-13.1158
rapid	-13.1158
nucynta	-13.1158
august	-13.1158
decreased	-13.1158
benzo	-13.1158
iud	-13.1161
couldn	-13.1164
site	-13.1167
moody	-13.1171
▁aggravate	-13.1192
▁reap	-13.1194
▁ultimate	-13.1198
▁hysterical	-13.1198
▁chiropractor	-13.1202
▁degeneration	-13.1202
▁diltiazem	-13.1202
▁evidence	-13.1202
▁exertion	-13.1202
▁florida	-13.1202
▁glucophage	-13.1202
▁intervention	-13.1202
▁language	-13.1202
▁menstruate	-13.1202
▁optimism	-13.1202
▁paralyzing	-13.1202
▁paramedic	-13.1202
▁possibilities	-13.1202
▁profile	-13.1202
▁prolactin	-13.1202
▁recieve	-13.1202
▁shallow	-13.1202
▁terconazole	-13.1202
▁urgency	-13.1202
▁hcg	-13.1202
▁incessant	-13.1202
▁sneak	-13.1202
▁obama	-13.1202
▁remote	-13.1202
▁topomax	-13.1202
▁unreasonable	-13.1202
▁weeping	-13.1202
▁endometri	-13.1202
▁pinpoint	-13.1202
ovral	-13.1202
▁dancing	-13.1202
▁throb	-13.1202
▁osteo	-13.1202
profen	-13.1202
▁boredom	-13.1202
▁arteri	-13.1202
▁hunt	-13.1202
▁ironically	-13.1202
▁mediation	-13.1202
▁cub	-13.1203
▁grey	-13.1203
▁folate	-13.1203
▁leap	-13.1203
▁hint	-13.1203
▁vice	-13.1204
▁sway	-13.1204
▁fourteen	-13.1204
oarse	-13.1204
▁freezing	-13.1205
▁5.7	-13.1206
▁trend	-13.1206
▁growling	-13.1207
▁planet	-13.1207
▁compressed	-13.1208
▁sinuses	-13.1208
▁retinol	-13.1208
▁promptly	-13.1208
▁listless	-13.121
▁appropriately	-13.121
▁elsewhere	-13.121
▁compete	-13.1211
▁smarter	-13.1212
▁fantastically	-13.1213
▁collected	-13.1218
▁4&####;##	-13.1218
▁host	-13.122
▁sixty	-13.1222
▁7.3	-13.1231
▁cw	-13.1233
▁weaken	-13.1235
▁sharper	-13.1239
▁pie	-13.1242
elling	-13.1248
law	-13.1279
ification	-13.1289
lightheaded	-13.1302
harm	-13.1307
▁exchange	-13.1311
▁paragra	-13.1317
odine	-13.1327
▁sand	-13.1327
1,###	-13.1358
ntin	-13.144
hhhh	-13.1461
weigh	-13.1465
▁server	-13.1498
tolerance	-13.1499
▁coworker	-13.1549
absolute	-13.1571
hydro	-13.1575
according	-13.1575
fresh	-13.1575
bupropion	-13.1575
february	-13.1575
immediate	-13.1575
implant	-13.1575
irregular	-13.1575
avoid	-13.1575
aviane	-13.1575
▁pore	-13.1575
minor	-13.1589
suffered	-13.159
retin	-13.1595
▁explore	-13.1597
▁disturb	-13.1597
oscopy	-13.1602
▁azo	-13.1602
▁deploy	-13.1608
▁elevate	-13.1609
▁concert	-13.1616
▁hyster	-13.1618
lubricat	-13.1618
nefazodone	-13.1618
▁almond	-13.1618
▁angioedema	-13.1618
▁cognition	-13.1618
▁colace	-13.1618
▁colour	-13.1618
▁conceiving	-13.1618
▁diligent	-13.1618
▁disregard	-13.1618
▁dwindle	-13.1618
▁exclusively	-13.1618
▁fidgeting	-13.1618
▁furious	-13.1618
▁garlic	-13.1618
▁goodluck	-13.1618
▁grandmother	-13.1618
▁hemorrhaging	-13.1618
▁hydrocortisone	-13.1618
▁lactating	-13.1618
▁mthfr	-13.1618
▁myfitnesspal	-13.1618
▁novalog	-13.1618
▁obliterated	-13.1618
▁perforated	-13.1618
▁physiological	-13.1618
▁prolapse	-13.1618
▁qualify	-13.1618
▁reassuring	-13.1618
▁spoon	-13.1618
▁summary	-13.1618
▁synthroid	-13.1618
▁syrup	-13.1618
▁temazapam	-13.1618
▁trivora	-13.1618
▁truthfully	-13.1618
▁unbalanced	-13.1618
▁unsteady	-13.1618
▁variation	-13.1618
▁washcloth	-13.1618
▁youtube	-13.1618
▁zaleplon	-13.1618
▁zinc	-13.1618
▁bikini	-13.1618
▁disadvantage	-13.1618
▁perscription	-13.1618
▁biased	-13.1618
▁commenc	-13.1618
▁keen	-13.1618
▁blotches	-13.1618
▁render	-13.1619
▁classifie	-13.1619
▁expirence	-13.1619
▁argumentative	-13.1619
▁cents	-13.1619
▁;-)	-13.1619
▁radiant	-13.1619
▁(1-2	-13.1619
▁merck	-13.1619
▁vibra	-13.1619
▁drama	-13.1619
▁spurts	-13.1619
algia	-13.1619
▁avg	-13.1619
▁(3-4	-13.1619
▁vyv	-13.1619
▁tempted	-13.1619
▁tums	-13.1619
▁antidepressent	-13.1619
opril	-13.162
▁favorable	-13.1621
▁enormously	-13.1624
htp	-13.1624
▁firmly	-13.1626
▁border	-13.1626
▁tax	-13.163
reckles	-13.1631
▁registered	-13.1631
▁4-8	-13.1633
▁copd	-13.1635
▁persevered	-13.1635
▁dazed	-13.1636
▁carefree	-13.1637
▁reversed	-13.1638
▁prime	-13.1644
terra	-13.1649
▁code	-13.1705
▁participat	-13.1735
▁tag	-13.1743
▁junkie	-13.1745
▁sunk	-13.1747
opia	-13.1762
ziness	-13.1783
▁dent	-13.1783
typical	-13.1829
▁thou	-13.1832
bili	-13.1839
▁judgment	-13.1855
operating	-13.1988
covered	-13.2008
hydrat	-13.2009
issue	-13.2009
phobia	-13.2009
relax	-13.2009
product	-13.2009
sertraline	-13.2009
vicodin	-13.2009
difficult	-13.201
victoza	-13.201
enough	-13.201
several	-13.201
depending	-13.201
called	-13.201
zaps	-13.201
whatever	-13.2011
▁model	-13.2012
dumb	-13.2019
beta	-13.2043
▁skyrocket	-13.2043
▁burp	-13.2044
▁prolong	-13.2046
otomy	-13.2047
ibility	-13.2048
rhea	-13.205
▁grump	-13.2051
▁potato	-13.2052
enny	-13.2053
▁flaw	-13.2053
▁advocate	-13.2053
▁attractive	-13.2053
▁bathtub	-13.2053
▁benign	-13.2053
▁clumsy	-13.2053
▁cottage	-13.2053
▁darvon	-13.2053
▁derealization	-13.2053
▁downstairs	-13.2053
▁easter	-13.2053
▁effortlessly	-13.2053
▁employer	-13.2053
▁esophagus	-13.2053
▁excercising	-13.2053
▁gathered	-13.2053
▁hypoglycemic	-13.2053
▁insanity	-13.2053
▁jelly	-13.2053
▁klonapin	-13.2053
▁lasix	-13.2053
▁liberating	-13.2053
▁livable	-13.2053
▁marginally	-13.2053
▁mobic	-13.2053
▁puzzle	-13.2053
▁qualified	-13.2053
▁quantity	-13.2053
▁sensibly	-13.2053
▁sneezing	-13.2053
▁squat	-13.2053
▁uninterested	-13.2053
▁yourselves	-13.2053
▁celebrat	-13.2053
▁engineer	-13.2053
▁excerise	-13.2053
▁hypochondriac	-13.2053
▁proportion	-13.2053
▁murad	-13.2053
mobile	-13.2053
▁gastritis	-13.2053
▁overseas	-13.2053
▁blink	-13.2053
▁smh	-13.2053
▁silent	-13.2053
▁(###/##)	-13.2053
▁burger	-13.2053
▁inclined	-13.2053
▁blissful	-13.2054
▁procrastination	-13.2054
▁heaps	-13.2054
▁giggl	-13.2054
▁hideous	-13.2054
▁radiation	-13.2054
▁adulthood	-13.2054
▁torment	-13.2055
▁adderrall	-13.2055
▁cystitis	-13.2056
▁limp	-13.2056
▁harmless	-13.2056
▁pretend	-13.2056
▁dude	-13.2056
▁crps	-13.2057
▁acclimated	-13.2057
▁lunchtime	-13.2057
▁deteriorated	-13.2059
▁dedicated	-13.2059
▁statement	-13.2063
▁intermittently	-13.2068
▁separately	-13.2071
aaaay	-13.2073
www	-13.2075
▁leftover	-13.2075
digging	-13.209
▁sal	-13.2124
▁zon	-13.2128
lived	-13.2131
chatter	-13.2145
▁correlate	-13.2187
holic	-13.2224
functional	-13.2255
▁substitut	-13.2264
novum	-13.2293
▁dan	-13.2353
apine	-13.2388
▁buck	-13.2438
▁cookie	-13.2439
cured	-13.2446
▁sync	-13.2448
insert	-13.2454
▁limb	-13.2457
jay	-13.2457
menstrual	-13.2463
causes	-13.2464
cheek	-13.2464
menopause	-13.2464
lamotrigine	-13.2464
mirtazapine	-13.2464
alesse	-13.2464
magic	-13.2464
saxenda	-13.2464
tylenol	-13.2464
watch	-13.2464
afternoon	-13.2464
metformin	-13.2464
negative	-13.2464
nightmares	-13.2464
oxycodone	-13.2464
decided	-13.2464
dependent	-13.2464
strong	-13.2464
oily	-13.2465
few	-13.2472
▁poo	-13.2481
▁twi	-13.2481
box	-13.2486
pressed	-13.2492
▁supp	-13.2503
▁laparoscop	-13.2508
convulsant	-13.2508
disclaimer	-13.2508
▁ablation	-13.2508
▁adolescence	-13.2508
▁aftertaste	-13.2508
▁aplenzin	-13.2508
▁compromise	-13.2508
▁consequently	-13.2508
▁deficient	-13.2508
▁depleted	-13.2508
▁detrimental	-13.2508
▁diahrrea	-13.2508
▁dislocate	-13.2508
▁disorientated	-13.2508
▁exfoliating	-13.2508
▁fifty	-13.2508
▁glidess	-13.2508
▁grapefruit	-13.2508
▁headachy	-13.2508
▁hypotension	-13.2508
▁incorporating	-13.2508
▁instrument	-13.2508
▁internist	-13.2508
▁jinx	-13.2508
▁managable	-13.2508
▁mechanism	-13.2508
▁monogamous	-13.2508
▁overjoyed	-13.2508
▁paragaurd	-13.2508
▁percodan	-13.2508
▁pneumonia	-13.2508
▁sensory	-13.2508
▁shadow	-13.2508
▁snoring	-13.2508
▁struck	-13.2508
▁technician	-13.2508
▁tranquilizer	-13.2508
▁traumatizing	-13.2508
▁vehicle	-13.2508
▁volatile	-13.2508
▁withdrew	-13.2508
ptyline	-13.2508
▁actiq	-13.2508
▁clearasil	-13.2508
▁erythromycin	-13.2508
▁grandchild	-13.2508
▁lenses	-13.2508
▁lodged	-13.2508
▁sonogram	-13.2508
▁tiring	-13.2508
▁grandson	-13.2508
▁spite	-13.2508
▁detect	-13.2508
▁haunt	-13.2508
▁quell	-13.2508
▁sandoz	-13.2508
▁iraq	-13.2508
▁circulation	-13.2508
▁court	-13.2508
▁caved	-13.2508
▁divide	-13.2508
▁disruptive	-13.2508
inflam	-13.2508
▁unheard	-13.2508
▁etern	-13.2508
▁hopped	-13.2508
▁simultaneously	-13.2508
▁blot	-13.2508
▁(4-5	-13.2508
▁golden	-13.2508
rabbi	-13.2509
▁potatoes	-13.2509
▁yep	-13.2509
▁gear	-13.2509
▁ooz	-13.2509
▁foolish	-13.2509
▁permission	-13.251
▁roxi	-13.251
▁dependable	-13.251
▁(7.5	-13.251
▁travelling	-13.2511
▁wink	-13.2511
▁shiny	-13.2512
▁worthlessness	-13.2513
▁consecutively	-13.2514
▁sluggishness	-13.2515
▁blunted	-13.2517
▁deployed	-13.2519
▁beast	-13.2519
▁hug	-13.2522
▁uneven	-13.2522
▁8.1	-13.2525
▁whew	-13.2526
▁clip	-13.2529
▁claw	-13.2539
licate	-13.255
warm	-13.2561
ssa	-13.2596
hen	-13.2643
▁tickle	-13.2658
▁deff	-13.2681
▁electro	-13.2738
▁development	-13.2767
operative	-13.2792
▁warrant	-13.2807
frac	-13.2915
▁restriction	-13.2915
load	-13.2922
evaluated	-13.2924
opana	-13.2926
▁lipo	-13.2934
complete	-13.2937
blocker	-13.294
acetaminophen	-13.294
induced	-13.294
saving	-13.294
foggy	-13.294
arthritis	-13.294
doxycycline	-13.294
spinal	-13.294
diabetes	-13.294
november	-13.294
similar	-13.294
dark	-13.294
available	-13.294
prevent	-13.2941
reduce	-13.2941
ssri	-13.2941
grown	-13.2943
▁procrastinat	-13.2971
▁impair	-13.2974
▁blunt	-13.2974
▁morn	-13.298
▁official	-13.298
construction	-13.2983
▁ibuprof	-13.2984
▁flaki	-13.2984
hypochondria	-13.2984
relevant	-13.2984
▁brink	-13.2984
▁buds	-13.2984
▁cartilage	-13.2984
▁clicks	-13.2984
▁communicating	-13.2984
▁disastrous	-13.2984
▁efficiency	-13.2984
▁embarrassment	-13.2984
▁emphasize	-13.2984
▁enthusiastic	-13.2984
▁fasciitis	-13.2984
▁glaucoma	-13.2984
▁hidden	-13.2984
▁idiopathic	-13.2984
▁inducing	-13.2984
▁inherited	-13.2984
▁institution	-13.2984
▁moisturising	-13.2984
▁newborn	-13.2984
▁occassional	-13.2984
▁population	-13.2984
▁prevalent	-13.2984
▁prilosec	-13.2984
▁pursue	-13.2984
▁queasiness	-13.2984
▁refrain	-13.2984
▁respectively	-13.2984
▁sceptical	-13.2984
▁slender	-13.2984
▁smack	-13.2984
▁spondylitis	-13.2984
▁studied	-13.2984
▁sulphur	-13.2984
▁tantrums	-13.2984
▁tbh	-13.2984
▁unrelent	-13.2984
▁xanex	-13.2984
quilli	-13.2984
▁cardizem	-13.2984
▁definitive	-13.2984
▁disinterest	-13.2984
▁pluck	-13.2984
▁undies	-13.2984
▁modifi	-13.2984
▁(##/##/##)	-13.2984
▁patent	-13.2984
▁sympathetic	-13.2984
▁reddish	-13.2984
▁surf	-13.2984
▁basketball	-13.2984
▁conduct	-13.2984
▁breastfed	-13.2984
▁ticket	-13.2984
▁ignoran	-13.2984
▁tragic	-13.2984
cuase	-13.2984
▁benza	-13.2984
▁foremost	-13.2984
▁xmas	-13.2984
▁moths	-13.2984
▁labour	-13.2984
zadone	-13.2984
▁naked	-13.2984
▁sanitar	-13.2985
medicinal	-13.2985
▁pacing	-13.2985
▁stray	-13.2985
▁dependant	-13.2985
▁nutri	-13.2985
▁nada	-13.2985
▁unnatural	-13.2985
▁furthermore	-13.2985
▁bulk	-13.2986
▁localized	-13.2986
▁consultant	-13.2986
▁caveat	-13.2986
▁encouragement	-13.2986
▁alcoholism	-13.2987
johnson	-13.2987
▁doubtful	-13.2988
▁peers	-13.2988
▁readily	-13.2988
▁accus	-13.2989
▁exaggerated	-13.299
▁extensively	-13.2992
▁tenex	-13.2995
▁procrastinate	-13.2997
▁explor	-13.3009
name	-13.302
▁attach	-13.3026
thora	-13.3043
▁ratio	-13.3063
▁transferr	-13.3091
▁dab	-13.3094
liber	-13.3125
ravenously	-13.3176
▁unsettl	-13.3232
▁slid	-13.3237
urning	-13.3244
▁gasp	-13.3253
woo	-13.327
ount	-13.3274
▁specialize	-13.3291
pathetic	-13.3303
▁versa	-13.3309
lostar	-13.3397
laf	-13.3404
▁fibroid	-13.3415
▁complication	-13.3415
▁spirall	-13.3434
seasonique	-13.3439
bound	-13.3439
hctz	-13.344
zolpidem	-13.344
tretinoin	-13.344
green	-13.344
hydrocodone	-13.344
saphris	-13.344
attention	-13.344
trust	-13.344
estrogen	-13.344
motivation	-13.344
prescription	-13.344
minimal	-13.344
sunday	-13.344
aczone	-13.3441
beyaz	-13.3441
pinch	-13.3442
poop	-13.3443
tricyclen	-13.3445
lodipine	-13.3447
▁extract	-13.3471
▁promote	-13.3474
▁quest	-13.3484
neurotransmitter	-13.3484
▁intoxicated	-13.3484
ssessed	-13.3484
tapentadol	-13.3484
▁activating	-13.3484
▁anhedonia	-13.3484
▁apetite	-13.3484
▁appendicitis	-13.3484
▁astonishing	-13.3484
▁cerebra	-13.3484
▁clotrimazole	-13.3484
▁communication	-13.3484
▁compatible	-13.3484
▁custo	-13.3484
▁deteriorating	-13.3484
▁dysphoric	-13.3484
▁efexor	-13.3484
▁electrolyte	-13.3484
▁elevator	-13.3484
▁filter	-13.3484
▁foreplay	-13.3484
▁fragrance	-13.3484
▁gatorade	-13.3484
▁gynocologist	-13.3484
▁honey	-13.3484
▁humiliat	-13.3484
▁indication	-13.3484
▁irresponsible	-13.3484
▁judging	-13.3484
▁keppra	-13.3484
▁magnified	-13.3484
▁obnoxious	-13.3484
▁oxazepam	-13.3484
▁prestiq	-13.3484
▁qualities	-13.3484
▁remarkably	-13.3484
▁ruminating	-13.3484
▁sprix	-13.3484
▁strike	-13.3484
▁symtoms	-13.3484
▁tarina	-13.3484
▁troubling	-13.3484
chemic	-13.3484
▁cyclical	-13.3484
▁mouthwash	-13.3484
▁benzy	-13.3484
▁nexoplan	-13.3484
▁deny	-13.3484
horomon	-13.3484
▁submit	-13.3484
▁occi	-13.3484
▁negate	-13.3484
▁valid	-13.3484
▁wtf	-13.3484
▁utiliz	-13.3484
▁chatty	-13.3484
▁circula	-13.3484
▁grandma	-13.3485
▁perkier	-13.3485
▁minestrin	-13.3485
▁grail	-13.3485
▁tempting	-13.3486
▁taco	-13.3486
▁fancy	-13.3487
▁snow	-13.3488
▁chunky	-13.3489
▁napping	-13.3489
▁disassociat	-13.349
▁nether	-13.349
▁wetness	-13.3493
prolol	-13.3494
▁chase	-13.3508
▁coach	-13.351
esterin	-13.3521
▁heath	-13.3521
skip	-13.3551
▁chlora	-13.3589
curable	-13.3638
ctal	-13.3647
▁sch	-13.3649
▁dye	-13.3658
radio	-13.3691
▁deposit	-13.3823
hypertensi	-13.3841
▁blog	-13.3916
▁kilo	-13.3941
▁distraction	-13.3941
▁blackhead	-13.3942
▁crie	-13.3943
▁enabl	-13.3944
▁sale	-13.395
possible	-13.3964
coaster	-13.3966
quetiapine	-13.3966
bacterial	-13.3966
maintenance	-13.3966
symptom	-13.3966
inject	-13.3967
joint	-13.3967
trouble	-13.3967
concerta	-13.3967
believe	-13.3967
exactly	-13.3967
lorazepam	-13.3967
paragard	-13.3967
remember	-13.3967
suicidal	-13.3967
appetite	-13.3967
boyfriend	-13.3967
husband	-13.3967
hoping	-13.3967
sweating	-13.3967
diagnosis	-13.3967
easier	-13.3967
scary	-13.3967
anyone	-13.3968
cough	-13.3968
plain	-13.3968
friday	-13.3969
healthy	-13.3969
fold	-13.3972
5.##	-13.3973
▁alleviat	-13.3982
▁threaten	-13.3999
abbing	-13.4005
▁breat	-13.4007
▁puff	-13.401
employed	-13.401
▁bodi	-13.401
▁obligat	-13.401
▁psoria	-13.401
▁craig	-13.401
ligible	-13.401
▁abstain	-13.401
▁affair	-13.401
▁aggravation	-13.401
▁agoraphobic	-13.401
▁alopecia	-13.401
▁aneurysm	-13.401
▁aniexty	-13.401
▁artery	-13.401
▁artist	-13.401
▁bawling	-13.401
▁caffiene	-13.401
▁chaotic	-13.401
▁cinnamon	-13.401
▁competitive	-13.401
▁cosmetic	-13.401
▁cpap	-13.401
▁crossfit	-13.401
▁disheartening	-13.401
▁dissatisfied	-13.401
▁dyslexia	-13.401
▁elevating	-13.401
▁elevation	-13.401
▁embrace	-13.401
▁expierence	-13.401
▁genius	-13.401
▁graduation	-13.401
▁holistic	-13.401
▁household	-13.401
▁mediocre	-13.401
▁neurosurgeon	-13.401
▁nightmarish	-13.401
▁rebate	-13.401
▁refrigerator	-13.401
▁revisit	-13.401
▁romantic	-13.401
▁sacroiliac	-13.401
▁shampoo	-13.401
▁silver	-13.401
▁sobriety	-13.401
▁somnolence	-13.401
▁squeezing	-13.401
▁stolen	-13.401
▁structure	-13.401
▁strung	-13.401
▁traumatized	-13.401
▁unhappiness	-13.401
▁unrealistic	-13.401
▁valentine	-13.401
▁zanaflex	-13.401
▁alien	-13.401
▁recipe	-13.401
▁dissapoint	-13.401
▁distort	-13.401
▁duties	-13.401
▁coincidental	-13.401
▁contrast	-13.401
▁morbidly	-13.401
▁toxins	-13.401
▁discern	-13.401
▁aweful	-13.401
▁grass	-13.401
▁gagging	-13.401
▁:&####;(	-13.401
▁embar	-13.401
▁airport	-13.4011
▁serax	-13.4011
▁transient	-13.4011
▁plump	-13.4011
▁tugging	-13.4011
▁classroom	-13.4011
▁unsafe	-13.4011
▁subjective	-13.4011
▁hypersensitive	-13.4011
▁molar	-13.4011
▁fuss	-13.4012
▁diaper	-13.4012
▁shitty	-13.4012
▁muted	-13.4012
▁realization	-13.4012
▁deadline	-13.4013
▁palpat	-13.4013
▁manual	-13.4014
triptan	-13.4015
▁rushes	-13.4019
▁dual	-13.4021
cyclic	-13.4024
ramping	-13.4033
▁hike	-13.4065
array	-13.4071
▁tame	-13.4123
laud	-13.4136
pital	-13.4143
taph	-13.4216
▁continous	-13.4223
racing	-13.4262
▁dub	-13.4264
▁file	-13.4268
▁reserve	-13.4286
▁spir	-13.4294
mission	-13.4383
▁swap	-13.4387
▁incre	-13.4414
ntil	-13.4438
scribe	-13.449
▁plug	-13.4508
ridden	-13.4519
lucky	-13.4521
wired	-13.4522
ocella	-13.4522
lifted	-13.4522
luckily	-13.4522
confidence	-13.4522
lutera	-13.4522
approx	-13.4522
quick	-13.4522
jawline	-13.4522
true	-13.4522
regulate	-13.4523
strange	-13.4523
somewhat	-13.4524
track	-13.4525
heating	-13.4526
often	-13.4531
▁dilat	-13.4533
lack	-13.4534
▁relat	-13.4538
▁6&####;2&	-13.4548
nky	-13.4549
▁dispos	-13.4549
ological	-13.4557
▁plunge	-13.4559
▁absolut	-13.4562
▁uncomfortabl	-13.4562
introduc	-13.4564
▁skeptic	-13.4565
▁practical	-13.4565
▁reoccur	-13.4565
▁appreciati	-13.4566
▁endocrin	-13.4566
destruct	-13.4566
▁absorption	-13.4566
▁aleese	-13.4566
▁appendix	-13.4566
▁ashlyna	-13.4566
▁assurance	-13.4566
▁atrocious	-13.4566
▁besylate	-13.4566
▁cavity	-13.4566
▁club	-13.4566
▁colitis	-13.4566
▁composition	-13.4566
▁comprehension	-13.4566
▁conservative	-13.4566
▁cruise	-13.4566
▁english	-13.4566
▁excelled	-13.4566
▁executive	-13.4566
▁galore	-13.4566
▁gambling	-13.4566
▁gravol	-13.4566
▁intensify	-13.4566
▁license	-13.4566
▁luxury	-13.4566
▁meniscus	-13.4566
▁menstural	-13.4566
▁pessimistic	-13.4566
▁prazosin	-13.4566
▁raynaud	-13.4566
▁recliner	-13.4566
▁releasing	-13.4566
▁separation	-13.4566
▁simplicity	-13.4566
▁smash	-13.4566
▁spilled	-13.4566
▁steak	-13.4566
▁titani	-13.4566
▁unaffected	-13.4566
▁unknowingly	-13.4566
▁vessels	-13.4566
▁viagra	-13.4566
▁violence	-13.4566
▁whirl	-13.4566
▁witnessed	-13.4566
▁xigduo	-13.4566
▁avandia	-13.4566
▁coherent	-13.4566
▁dianette	-13.4566
▁drowning	-13.4566
▁fabric	-13.4566
▁lousy	-13.4566
▁membrane	-13.4566
▁remarks	-13.4566
▁spiking	-13.4566
▁steep	-13.4566
▁toothpaste	-13.4566
▁voila	-13.4566
▁wierd	-13.4566
▁meditate	-13.4566
▁bash	-13.4566
▁convien	-13.4566
chille	-13.4566
▁canesten	-13.4566
▁temptation	-13.4566
▁ibuprop	-13.4566
▁blend	-13.4566
▁noctur	-13.4566
▁wallet	-13.4566
▁cfs	-13.4566
▁mature	-13.4566
▁rubber	-13.4566
▁enduring	-13.4566
▁fret	-13.4566
▁virginity	-13.4567
▁activate	-13.4567
▁tenfold	-13.4567
▁eyeball	-13.4567
▁unmedicated	-13.4567
▁pregant	-13.4567
▁preference	-13.4568
▁helplessness	-13.4568
▁unchanged	-13.4568
▁###-####	-13.4568
▁sle	-13.4568
▁binging	-13.4569
▁turnaround	-13.4569
▁trace	-13.4576
▁gate	-13.4579
▁choke	-13.4605
logging	-13.4622
metho	-13.463
ritab	-13.4667
ooked	-13.4678
▁uh	-13.4706
diazepam	-13.4811
▁comb	-13.4816
nsta	-13.482
logist	-13.4843
▁pause	-13.4846
abil	-13.4882
rogestrin	-13.4905
▁lame	-13.4976
▁nutritional	-13.5004
etly	-13.504
wich	-13.504
5-6	-13.5052
▁advis	-13.5058
▁freeze	-13.5072
feeding	-13.5108
consider	-13.511
doxepin	-13.511
diovan	-13.511
bactrim	-13.511
minocycline	-13.511
patience	-13.511
irritability	-13.511
uncomfortable	-13.511
dinner	-13.511
foot	-13.511
irritable	-13.511
truly	-13.511
barely	-13.511
noticed	-13.511
controlled	-13.5111
jog	-13.5111
find	-13.5112
bought	-13.5113
▁psyc	-13.5126
▁dismiss	-13.5144
▁reconstruct	-13.5147
▁heighten	-13.5147
▁visibl	-13.515
▁verbal	-13.515
▁origin	-13.5153
mmunity	-13.5154
vigil	-13.5154
▁analgesic	-13.5154
▁articulate	-13.5154
▁bleak	-13.5154
▁bloodstream	-13.5154
▁buprenorphine	-13.5154
▁clonopin	-13.5154
▁clumpy	-13.5154
▁counsellor	-13.5154
▁demeanor	-13.5154
▁enforcement	-13.5154
▁eucerin	-13.5154
▁furniture	-13.5154
▁gamut	-13.5154
▁handwriting	-13.5154
▁hooray	-13.5154
▁horny	-13.5154
▁hyclate	-13.5154
▁hypersomnia	-13.5154
▁inappropriate	-13.5154
▁lorcet	-13.5154
▁metronidazole	-13.5154
▁nickel	-13.5154
▁perceive	-13.5154
▁pesky	-13.5154
▁prevail	-13.5154
▁razor	-13.5154
▁reputable	-13.5154
▁reservation	-13.5154
▁spondylosis	-13.5154
▁squirm	-13.5154
▁syringe	-13.5154
▁thrombosis	-13.5154
▁trivial	-13.5154
▁wieght	-13.5154
▁additive	-13.5154
▁assault	-13.5154
▁comprehend	-13.5154
▁staple	-13.5154
▁swab	-13.5154
shrank	-13.5154
▁hardcore	-13.5154
▁pamelor	-13.5154
▁reproducti	-13.5154
▁hoops	-13.5154
▁prune	-13.5154
▁dispens	-13.5154
▁eeg	-13.5154
▁modification	-13.5154
▁blackouts	-13.5154
▁colonoscopy	-13.5154
▁flexibility	-13.5154
▁mineral	-13.5154
▁abyss	-13.5154
▁goofy	-13.5154
▁fraction	-13.5154
▁seconal	-13.5154
▁resent	-13.5154
▁modify	-13.5154
▁predomina	-13.5154
▁baseball	-13.5154
▁spirits	-13.5154
▁chasing	-13.5154
▁triptans	-13.5154
▁slack	-13.5154
izide	-13.5155
▁selective	-13.5155
▁initiate	-13.5155
▁flipping	-13.5155
▁academically	-13.5155
▁preschool	-13.5155
lomania	-13.5155
▁knowledgeable	-13.5156
▁naive	-13.5156
▁unconscious	-13.5156
▁billion	-13.516
▁gray	-13.5161
▁presume	-13.5161
▁mira	-13.5167
▁chop	-13.5168
▁ambian	-13.5173
ethin	-13.5179
depressent	-13.5211
knee	-13.524
essive	-13.5241
peak	-13.5362
▁pitch	-13.5391
▁excersi	-13.5489
ware	-13.5548
owl	-13.5701
▁asperger	-13.5709
▁receptor	-13.5709
▁pantie	-13.571
▁profession	-13.5717
swings	-13.5725
initial	-13.5732
▁exacerbat	-13.5732
purging	-13.5735
smoker	-13.5735
codeine	-13.5735
fluoxetine	-13.5735
herniated	-13.5735
paraguard	-13.5735
invokana	-13.5735
lisinopril	-13.5735
ovulation	-13.5735
dilaudid	-13.5735
obviously	-13.5735
schedule	-13.5735
hungry	-13.5735
physical	-13.5735
unprotected	-13.5735
nauseous	-13.5735
pregnant	-13.5735
already	-13.5735
random	-13.5735
anything	-13.5735
upset	-13.5736
facial	-13.5736
leave	-13.5736
instant	-13.5736
habit	-13.5736
scale	-13.5736
deep	-13.5736
scars	-13.5737
cardio	-13.5738
lump	-13.5741
next	-13.575
▁disgust	-13.5758
▁educate	-13.5769
▁discharging	-13.5779
▁obstructi	-13.5779
benazepril	-13.5779
methylfolate	-13.5779
plenon	-13.5779
reliant	-13.5779
▁altavera	-13.5779
▁analyze	-13.5779
▁anniversary	-13.5779
▁barrier	-13.5779
▁biotene	-13.5779
▁botox	-13.5779
▁bundle	-13.5779
▁cavities	-13.5779
▁climate	-13.5779
▁compazine	-13.5779
▁congested	-13.5779
▁cortisol	-13.5779
▁cucumber	-13.5779
▁cylert	-13.5779
▁discolored	-13.5779
▁dystrophy	-13.5779
▁employee	-13.5779
▁england	-13.5779
▁enroll	-13.5779
▁expiration	-13.5779
▁exterior	-13.5779
▁gastroparesis	-13.5779
▁gynaecologist	-13.5779
▁halloween	-13.5779
▁hygiene	-13.5779
▁incorrectly	-13.5779
▁infertility	-13.5779
▁insecurity	-13.5779
▁introverted	-13.5779
▁investigate	-13.5779
▁invincible	-13.5779
▁marlissa	-13.5779
▁opportunities	-13.5779
▁orsynthia	-13.5779
▁orysthia	-13.5779
▁ourselves	-13.5779
▁pantiliner	-13.5779
▁reliably	-13.5779
▁retroverted	-13.5779
▁reversible	-13.5779
▁rigorous	-13.5779
▁ruminate	-13.5779
▁scroll	-13.5779
▁sitagliptin	-13.5779
▁stagger	-13.5779
▁starvation	-13.5779
▁subutex	-13.5779
▁sunblock	-13.5779
▁telephone	-13.5779
▁transformation	-13.5779
▁tribenzor	-13.5779
▁turmoil	-13.5779
▁tylox	-13.5779
▁uneventful	-13.5779
▁unnecessarily	-13.5779
▁whiplash	-13.5779
▁1-1.5	-13.5779
▁amazement	-13.5779
▁stride	-13.5779
▁stubb	-13.5779
▁facewash	-13.5779
▁bacon	-13.5779
plegic	-13.5779
▁stack	-13.5779
▁womb	-13.5779
▁yield	-13.5779
▁streak	-13.5779
▁tailbone	-13.5779
muffin	-13.5779
▁edarbyc	-13.5779
▁lubricated	-13.5779
▁insomia	-13.5779
▁erased	-13.5779
▁nowadays	-13.5779
▁saint	-13.5779
▁conju	-13.5779
▁ovcon	-13.5779
▁panlor	-13.5779
▁tanning	-13.5779
▁excersise	-13.5779
▁mercy	-13.578
▁defective	-13.578
▁grease	-13.578
▁urging	-13.578
▁seventeen	-13.578
▁pricy	-13.578
▁york	-13.578
▁elimination	-13.578
▁mush	-13.5781
▁flour	-13.5781
▁stats	-13.5781
vanse	-13.5781
escent	-13.5783
▁reconstruction	-13.5788
obby	-13.5791
▁interruption	-13.5797
safe	-13.58
eeee	-13.5808
foaming	-13.5812
▁zonk	-13.5849
modern	-13.5894
▁dampen	-13.5956
ergic	-13.5987
mscontin	-13.6011
sliding	-13.6041
▁disfunction	-13.6045
▁recogniz	-13.6091
▁wayyy	-13.6093
▁reevaluate	-13.619
woke	-13.6222
▁roxy	-13.6264
septic	-13.6295
▁transfer	-13.6296
▁labil	-13.6362
script	-13.6381
nnes	-13.6384
experience	-13.6392
medicate	-13.6393
serious	-13.6399
luvox	-13.6402
equivalent	-13.6402
nuva	-13.6402
seizure	-13.6402
ankle	-13.6402
extended	-13.6402
jittery	-13.6402
smoking	-13.6402
review	-13.6402
vaginal	-13.6402
family	-13.6402
cravings	-13.6402
pcos	-13.6402
surgery	-13.6402
alcohol	-13.6402
feet	-13.6402
drugged	-13.6402
monday	-13.6403
▁compress	-13.6436
▁disconnect	-13.6436
xiga	-13.6437
▁caffein	-13.6442
▁dizz	-13.6443
unfortun	-13.6446
inflammatories	-13.6446
▁adolescent	-13.6446
▁appitite	-13.6446
▁biacna	-13.6446
▁breathlessness	-13.6446
▁bulimic	-13.6446
▁chlorine	-13.6446
▁clarisonic	-13.6446
▁conscience	-13.6446
▁culture	-13.6446
▁dislodge	-13.6446
▁enalapril	-13.6446
▁enraged	-13.6446
▁famished	-13.6446
▁fertiliz	-13.6446
▁fibrillation	-13.6446
▁graduating	-13.6446
▁gratitude	-13.6446
▁hunch	-13.6446
▁importance	-13.6446
▁incapacitated	-13.6446
▁inconsistency	-13.6446
▁inflammed	-13.6446
▁lopressor	-13.6446
▁mcdonald	-13.6446
▁nutshell	-13.6446
▁pregabalin	-13.6446
▁professor	-13.6446
▁psychiatry	-13.6446
▁qualitest	-13.6446
▁salvation	-13.6446
▁saviour	-13.6446
▁snake	-13.6446
▁spirolactone	-13.6446
▁stunned	-13.6446
▁subscribed	-13.6446
▁surpass	-13.6446
▁thorazine	-13.6446
▁unfair	-13.6446
▁unsightly	-13.6446
▁vajayjay	-13.6446
▁widespread	-13.6446
▁chuck	-13.6446
▁complement	-13.6446
▁cyclothymi	-13.6446
▁fibula	-13.6446
▁insterted	-13.6446
▁odour	-13.6446
▁omega	-13.6446
▁scaly	-13.6446
▁variable	-13.6446
▁certifi	-13.6446
▁appetizing	-13.6446
▁perimenopause	-13.6446
▁botch	-13.6446
▁perimenopausal	-13.6446
▁presence	-13.6446
▁fatique	-13.6446
▁profit	-13.6446
▁tamper	-13.6446
▁wimp	-13.6446
▁slimmer	-13.6446
▁ejaculating	-13.6446
lopram	-13.6446
▁kiddos	-13.6446
▁slave	-13.6446
▁comedones	-13.6446
▁admission	-13.6446
▁solving	-13.6446
▁anterior	-13.6446
▁herpes	-13.6446
▁tapper	-13.6446
▁nineteen	-13.6446
▁ingesting	-13.6446
▁victor	-13.6446
▁tretin	-13.6447
▁winning	-13.6447
▁anticipation	-13.6447
▁tuck	-13.6447
▁belsom	-13.6452
▁lamic	-13.6458
▁accumulate	-13.6472
dresser	-13.6478
eighth	-13.6502
▁cooper	-13.6782
▁uncertain	-13.6798
oct	-13.6809
▁chippe	-13.6849
sensitivity	-13.7016
zepam	-13.7018
▁pysch	-13.7039
migraine	-13.7046
thru	-13.7103
figur	-13.7116
methylphenidate	-13.7116
buzz	-13.7116
jaw	-13.7116
nuvigil	-13.7116
hydroxyzine	-13.7116
fitness	-13.7116
temazepam	-13.7116
particularly	-13.7116
gildess	-13.7116
saturday	-13.7116
blue	-13.7116
double	-13.7116
topamax	-13.7116
nurse	-13.7116
flashes	-13.7116
morphine	-13.7116
stuck	-13.7116
important	-13.7116
qsymia	-13.7116
wrong	-13.7116
finished	-13.7116
patch	-13.7116
cancer	-13.7116
dizzy	-13.7116
pressure	-13.7116
quite	-13.7116
human	-13.7116
common	-13.7119
accumulat	-13.7132
▁dedicat	-13.715
▁concur	-13.7152
▁introduce	-13.7153
▁dystoni	-13.7158
▁narco	-13.716
▁incidence	-13.716
▁stablize	-13.716
▁unintentional	-13.716
azipam	-13.716
spermicide	-13.716
▁7/7/7	-13.716
▁aggitated	-13.716
▁angrier	-13.716
▁antacid	-13.716
▁baclofen	-13.716
▁cardura	-13.716
▁cerebri	-13.716
▁column	-13.716
▁contributor	-13.716
▁criteria	-13.716
▁cyclafem	-13.716
▁deterrent	-13.716
▁diethylpropion	-13.716
▁disbelief	-13.716
▁disguise	-13.716
▁dissolving	-13.716
▁drenched	-13.716
▁drowzy	-13.716
▁edginess	-13.716
▁electrocuted	-13.716
▁employment	-13.716
▁evolved	-13.716
▁freight	-13.716
▁gamble	-13.716
▁glimeperide	-13.716
▁hepatitis	-13.716
▁hindsight	-13.716
▁hydrochloride	-13.716
▁imovane	-13.716
▁imperative	-13.716
▁incentive	-13.716
▁instantaneous	-13.716
▁intramuscular	-13.716
▁leukemia	-13.716
▁lilletta	-13.716
▁malfunction	-13.716
▁menstration	-13.716
▁micrograms	-13.716
▁migrated	-13.716
▁minuscule	-13.716
▁motivating	-13.716
▁murmur	-13.716
▁naseous	-13.716
▁nifedipine	-13.716
▁nyquil	-13.716
▁pacemaker	-13.716
▁pierced	-13.716
▁precious	-13.716
▁promotion	-13.716
▁pudding	-13.716
▁restrain	-13.716
▁salmon	-13.716
▁seratonin	-13.716
▁shivers	-13.716
▁slurring	-13.716
▁socket	-13.716
▁splurge	-13.716
▁succinate	-13.716
▁tartrate	-13.716
▁thriving	-13.716
▁trajenta	-13.716
▁tranxene	-13.716
▁triazolam	-13.716
▁triphasil	-13.716
▁tropical	-13.716
▁unattractive	-13.716
▁unsatisfied	-13.716
▁vagistat	-13.716
▁vulgaris	-13.716
▁wellburtin	-13.716
▁yanked	-13.716
▁zestril	-13.716
▁casual	-13.716
▁ingestion	-13.716
▁rinsing	-13.716
mnths	-13.716
▁convert	-13.716
▁adrenal	-13.716
▁steal	-13.716
▁mysterious	-13.716
▁methamphetamine	-13.716
▁yelp	-13.716
hammer	-13.716
▁ibprofen	-13.716
▁ritil	-13.716
▁scramble	-13.716
▁sickening	-13.716
▁retriev	-13.716
▁flick	-13.716
▁hurl	-13.716
▁transport	-13.716
▁verify	-13.716
▁wrestl	-13.716
▁dysmen	-13.716
▁discreet	-13.716
▁olive	-13.716
▁softball	-13.716
▁lazie	-13.716
▁qid	-13.716
▁seraqu	-13.716
▁foresee	-13.716
▁deem	-13.7161
auze	-13.7161
histamine	-13.718
▁overlap	-13.718
cription	-13.7182
ranola	-13.7245
hypersensitivity	-13.7255
spacy	-13.728
▁strat	-13.7451
estimated	-13.7451
riod	-13.7495
cross	-13.7705
▁zappe	-13.777
direct	-13.7789
solved	-13.7836
▁enzyme	-13.7859
▁walgreen	-13.786
▁palpitation	-13.786
twenties	-13.7885
voice	-13.7885
electric	-13.7885
brilliant	-13.7885
professional	-13.7885
restoril	-13.7885
unbelievable	-13.7885
bladder	-13.7885
drunk	-13.7885
lantus	-13.7885
benicar	-13.7885
bystolic	-13.7885
kidney	-13.7885
nervous	-13.7886
vivid	-13.7886
college	-13.7886
yeast	-13.7886
mixed	-13.7886
snack	-13.7886
▁cera	-13.7894
▁surround	-13.7918
▁indulge	-13.7919
▁deteriorate	-13.7919
▁locate	-13.7919
▁frustrate	-13.792
hallucinat	-13.7926
▁element	-13.7929
▁http	-13.7929
bromyalgia	-13.7929
▁entertain	-13.7929
blonde	-13.7929
concrete	-13.7929
phetermine	-13.7929
spiration	-13.7929
▁accelerate	-13.7929
▁anafranil	-13.7929
▁arriving	-13.7929
▁arsenal	-13.7929
▁carrots	-13.7929
▁cheekbones	-13.7929
▁claustrophobic	-13.7929
▁constipating	-13.7929
▁cortibalm	-13.7929
▁cruel	-13.7929
▁crusty	-13.7929
▁debilitated	-13.7929
▁desirable	-13.7929
▁disconcerting	-13.7929
▁dissipating	-13.7929
▁ecstasy	-13.7929
▁elephant	-13.7929
▁endurance	-13.7929
▁esthetician	-13.7929
▁etodolac	-13.7929
▁expirience	-13.7929
▁extraordinary	-13.7929
▁faucet	-13.7929
▁fierce	-13.7929
▁grandkids	-13.7929
▁gurgl	-13.7929
▁hurdle	-13.7929
▁hurrie	-13.7929
▁imodium	-13.7929
▁jesus	-13.7929
▁ketorolac	-13.7929
▁kroger	-13.7929
▁laminectomy	-13.7929
▁likelihood	-13.7929
▁meperidine	-13.7929
▁motivator	-13.7929
▁neglect	-13.7929
▁pencil	-13.7929
▁pleasurable	-13.7929
▁prospect	-13.7929
▁protien	-13.7929
▁quantities	-13.7929
▁reclusive	-13.7929
▁resolution	-13.7929
▁rhinitis	-13.7929
▁rivotril	-13.7929
▁robaxin	-13.7929
▁sensative	-13.7929
▁sensitivities	-13.7929
▁sniff	-13.7929
▁sternum	-13.7929
▁suffice	-13.7929
▁surviving	-13.7929
▁thirteen	-13.7929
▁trentinoin	-13.7929
▁unprepared	-13.7929
▁vortioxetine	-13.7929
▁wardrobe	-13.7929
▁weepiness	-13.7929
▁zzzquil	-13.7929
▁classmates	-13.7929
▁compassion	-13.7929
▁despise	-13.7929
▁hyperplasia	-13.7929
▁ladder	-13.7929
▁meningitis	-13.7929
▁pamprin	-13.7929
▁revision	-13.7929
▁silence	-13.7929
▁spondy	-13.7929
▁tibia	-13.7929
▁ziac	-13.7929
▁mechanic	-13.7929
▁notified	-13.7929
▁blob	-13.7929
▁bonine	-13.7929
▁graft	-13.7929
▁mrsa	-13.7929
▁spicy	-13.7929
▁generous	-13.7929
▁orthotricyclin	-13.7929
▁overpowering	-13.7929
▁ebb	-13.7929
▁intellectual	-13.7929
▁perforation	-13.7929
▁squea	-13.7929
▁tcas	-13.7929
minocin	-13.7929
▁vigilant	-13.7929
▁amazon	-13.7929
▁commut	-13.7929
▁obligations	-13.7929
▁grasp	-13.7929
savor	-13.7929
▁droop	-13.7929
▁revert	-13.793
naughty	-13.793
scented	-13.793
▁agonis	-13.793
injure	-13.793
▁strap	-13.7931
hacking	-13.7933
▁bulb	-13.7946
vyan	-13.7946
scape	-13.7955
pathic	-13.8001
pigging	-13.8004
escu	-13.8146
uddle	-13.8328
▁evaluat	-13.8527
hopping	-13.8566
▁migrane	-13.8693
▁veggie	-13.8693
▁hallucination	-13.8693
familiar	-13.8718
spacey	-13.8719
paroxetine	-13.8719
benzodiazepine	-13.8719
silenor	-13.8719
lethargy	-13.8719
obese	-13.8719
woman	-13.8719
minastrin	-13.8719
copper	-13.8719
strength	-13.8719
average	-13.8719
enjoy	-13.8719
heavier	-13.8719
treatment	-13.8719
ibuprofen	-13.8719
adult	-13.8719
death	-13.8719
sharp	-13.8719
shift	-13.872
whelming	-13.8749
▁instruct	-13.8752
▁exaggerate	-13.8753
▁carbonate	-13.8753
▁recommen	-13.8753
▁vertebra	-13.8759
▁abrupt	-13.8759
▁frank	-13.8759
ontraindications	-13.8763
▁astounding	-13.8763
▁confess	-13.8763
▁lactation	-13.8763
▁mirtazepine	-13.8763
▁occupied	-13.8763
▁oxycotin	-13.8763
▁photograph	-13.8763
▁pimply	-13.8763
▁policy	-13.8763
▁schizo	-13.8763
▁sporatic	-13.8763
▁stratera	-13.8763
▁superficial	-13.8763
▁wracking	-13.8763
bprophen	-13.8763
coordinated	-13.8763
cylcen	-13.8763
dissolvable	-13.8763
jaydess	-13.8763
obarbital	-13.8763
phobic	-13.8763
provoke	-13.8763
unwelcome	-13.8763
verapamil	-13.8763
▁(1/##/##)	-13.8763
▁alseep	-13.8763
▁ambitious	-13.8763
▁apidex	-13.8763
▁booze	-13.8763
▁broad	-13.8763
▁brochure	-13.8763
▁caziant	-13.8763
▁cerazette	-13.8763
▁cheesecake	-13.8763
▁chromium	-13.8763
▁chubby	-13.8763
▁citalapram	-13.8763
▁comatose	-13.8763
▁convulsions	-13.8763
▁dibilitating	-13.8763
▁diverticulitis	-13.8763
▁dysphoria	-13.8763
▁epilim	-13.8763
▁exasperat	-13.8763
▁facebook	-13.8763
▁flab	-13.8763
▁forewarned	-13.8763
▁fragile	-13.8763
▁germany	-13.8763
▁ghost	-13.8763
▁glorious	-13.8763
▁immobiliz	-13.8763
▁incoherent	-13.8763
▁inhaler	-13.8763
▁insomina	-13.8763
▁intelligence	-13.8763
▁international	-13.8763
▁japanese	-13.8763
▁jello	-13.8763
▁lamictil	-13.8763
▁laptop	-13.8763
▁licking	-13.8763
▁lisinipril	-13.8763
▁meloxicam	-13.8763
▁multiply	-13.8763
▁naseau	-13.8763
▁necrosis	-13.8763
▁nostril	-13.8763
▁perpetual	-13.8763
▁plaster	-13.8763
▁pleurisy	-13.8763
▁porcelain	-13.8763
▁precisely	-13.8763
▁resource	-13.8763
▁safry	-13.8763
▁salyci	-13.8763
▁spiritual	-13.8763
▁surreal	-13.8763
▁suspicion	-13.8763
▁sympton	-13.8763
▁trunk	-13.8763
▁unravel	-13.8763
▁voluntarily	-13.8763
▁wafers	-13.8763
▁wheezing	-13.8763
▁whiskey	-13.8763
▁zanax	-13.8763
▁zenzedi	-13.8763
▁moaning	-13.8763
▁princip	-13.8763
▁scoop	-13.8763
▁succumb	-13.8763
▁timid	-13.8763
▁unwilling	-13.8763
▁nordette	-13.8763
▁strand	-13.8763
▁wiggl	-13.8763
▁(###/###)	-13.8763
▁altace	-13.8763
▁clynd	-13.8763
▁waaay	-13.8763
orrow	-13.8763
▁bucket	-13.8763
▁norplant	-13.8763
▁saxen	-13.8763
spintec	-13.8763
▁involuntarily	-13.8763
▁isolating	-13.8763
▁cadet	-13.8763
▁gruel	-13.8763
▁neurotin	-13.8763
▁aderall	-13.8763
▁congenita	-13.8763
▁boast	-13.8763
oretic	-13.8763
zilch	-13.8763
▁noodle	-13.8763
ockey	-13.8763
▁zomb	-13.8763
ramble	-13.8764
▁pharmacologi	-13.8764
▁approximat	-13.877
▁exec	-13.8773
straightened	-13.878
predictably	-13.8805
▁implement	-13.9328
▁nuev	-13.9492
current	-13.9528
ogester	-13.9535
methy	-13.956
▁mitr	-13.9563
▁jean	-13.9602
▁dizzines	-13.9603
vomit	-13.9617
diagnose	-13.9618
heard	-13.9627
mobility	-13.9627
librium	-13.9627
shirt	-13.9627
threatening	-13.9628
fractured	-13.9628
complex	-13.9628
ejaculation	-13.9628
nardil	-13.9628
interesting	-13.9628
borderline	-13.9628
buspirone	-13.9628
poison	-13.9628
fentanyl	-13.9628
vistaril	-13.9628
bonus	-13.9628
concern	-13.9628
pocket	-13.9628
benadryl	-13.9628
horrific	-13.9628
melatonin	-13.9628
excessive	-13.9628
smooth	-13.9628
drowsiness	-13.9628
obsess	-13.9628
hospital	-13.9628
success	-13.9628
guess	-13.9628
beginning	-13.9628
pimples	-13.9628
learn	-13.9628
job	-13.9628
content	-13.9629
▁exhaust	-13.965
▁overwhelm	-13.9651
neath	-13.9654
▁horri	-13.9662
▁dehydrate	-13.9662
▁sprinte	-13.9669
▁facilit	-13.9669
▁stead	-13.9669
▁exerc	-13.9672
▁tachy	-13.9672
unreasonabl	-13.9672
▁alchohol	-13.9672
▁alpha	-13.9672
▁favourite	-13.9672
▁gasoline	-13.9672
▁intimidating	-13.9672
▁muddled	-13.9672
▁olanz	-13.9672
▁penetrate	-13.9672
▁puppy	-13.9672
▁senna	-13.9672
▁serenity	-13.9672
▁tragedy	-13.9672
hyperventilation	-13.9672
pubic	-13.9672
tioconazole	-13.9672
▁adapelene	-13.9672
▁advertisement	-13.9672
▁amplify	-13.9672
▁association	-13.9672
